// Modèle TFLite — Classification vibrations
// Classes : 0=idle, 1=shake
// Taille  : 16952 bytes
// GLOBAL_MIN = -1.2000f
// GLOBAL_MAX = 3.0000f

alignas(8) const unsigned char vibrations_model[] = {
  0x1c, 0x00, 0x00, 0x00, 0x54, 0x46, 0x4c, 0x33, 0x14, 0x00, 0x20, 0x00, 0x1c, 0x00, 0x18, 0x00, 0x14, 0x00, 0x10, 0x00, 0x0c, 0x00, 0x00, 0x00, 0x08, 0x00, 0x04, 0x00, 0x14, 0x00, 0x00, 0x00, 0x1c, 0x00, 0x00, 0x00, 0x98, 0x00, 0x00, 0x00, 0x18, 0x01, 0x00, 0x00, 0xa0, 0x31, 0x00, 0x00, 0xb0, 0x31, 0x00, 0x00, 0xcc, 0x41, 0x00, 0x00, 0x03, 0x00, 0x00, 0x00, 0x01, 0x00, 0x00, 0x00, 0x10, 0x00, 0x00, 0x00, 0x00, 0x00, 0x0a, 0x00, 0x10, 0x00, 0x0c, 0x00, 0x08, 0x00, 0x04, 0x00, 0x0a, 0x00, 0x00, 0x00, 0x0c, 0x00, 0x00, 0x00, 0x1c, 0x00, 0x00, 0x00, 0x3c, 0x00, 0x00, 0x00, 0x0f, 0x00, 0x00, 0x00, 0x73, 0x65, 0x72, 0x76, 0x69, 0x6e, 0x67, 0x5f, 0x64, 0x65, 0x66, 0x61, 0x75, 0x6c, 0x74, 0x00, 0x01, 0x00, 0x00, 0x00, 0x04, 0x00, 0x00, 0x00, 0x68, 0xff, 0xff, 0xff, 0x0a, 0x00, 0x00, 0x00, 0x04, 0x00, 0x00, 0x00, 0x08, 0x00, 0x00, 0x00, 0x6f, 0x75, 0x74, 0x70, 0x75, 0x74, 0x5f, 0x30, 0x00, 0x00, 0x00, 0x00, 0x01, 0x00, 0x00, 0x00, 0x04, 0x00, 0x00, 0x00, 0x46, 0xce, 0xff, 0xff, 0x04, 0x00, 0x00, 0x00, 0x0e, 0x00, 0x00, 0x00, 0x6b, 0x65, 0x72, 0x61, 0x73, 0x5f, 0x74, 0x65, 0x6e, 0x73, 0x6f, 0x72, 0x5f, 0x36, 0x00, 0x00, 0x03, 0x00, 0x00, 0x00, 0x5c, 0x00, 0x00, 0x00, 0x2c, 0x00, 0x00, 0x00, 0x04, 0x00, 0x00, 0x00, 0xb8, 0xff, 0xff, 0xff, 0x0e, 0x00, 0x00, 0x00, 0x04, 0x00, 0x00, 0x00, 0x13, 0x00, 0x00, 0x00, 0x43, 0x4f, 0x4e, 0x56, 0x45, 0x52, 0x53, 0x49, 0x4f, 0x4e, 0x5f, 0x4d, 0x45, 0x54, 0x41, 0x44, 0x41, 0x54, 0x41, 0x00, 0xdc, 0xff, 0xff, 0xff, 0x0d, 0x00, 0x00, 0x00, 0x04, 0x00, 0x00, 0x00, 0x13, 0x00, 0x00, 0x00, 0x6d, 0x69, 0x6e, 0x5f, 0x72, 0x75, 0x6e, 0x74, 0x69, 0x6d, 0x65, 0x5f, 0x76, 0x65, 0x72, 0x73, 0x69, 0x6f, 0x6e, 0x00, 0x08, 0x00, 0x0c, 0x00, 0x08, 0x00, 0x04, 0x00, 0x08, 0x00, 0x00, 0x00, 0x0c, 0x00, 0x00, 0x00, 0x04, 0x00, 0x00, 0x00, 0x13, 0x00, 0x00, 0x00, 0x6d, 0x69, 0x6e, 0x5f, 0x72, 0x75, 0x6e, 0x74, 0x69, 0x6d, 0x65, 0x5f, 0x76, 0x65, 0x72, 0x73, 0x69, 0x6f, 0x6e, 0x00, 0x0f, 0x00, 0x00, 0x00, 0x84, 0x30, 0x00, 0x00, 0x7c, 0x30, 0x00, 0x00, 0x64, 0x30, 0x00, 0x00, 0x14, 0x30, 0x00, 0x00, 0x84, 0x2f, 0x00, 0x00, 0x74, 0x27, 0x00, 0x00, 0x64, 0x26, 0x00, 0x00, 0xd4, 0x00, 0x00, 0x00, 0xcc, 0x00, 0x00, 0x00, 0xc4, 0x00, 0x00, 0x00, 0xbc, 0x00, 0x00, 0x00, 0xb4, 0x00, 0x00, 0x00, 0x94, 0x00, 0x00, 0x00, 0x74, 0x00, 0x00, 0x00, 0x04, 0x00, 0x00, 0x00, 0x26, 0xcf, 0xff, 0xff, 0x04, 0x00, 0x00, 0x00, 0x60, 0x00, 0x00, 0x00, 0x0c, 0x00, 0x00, 0x00, 0x08, 0x00, 0x0e, 0x00, 0x08, 0x00, 0x04, 0x00, 0x08, 0x00, 0x00, 0x00, 0x10, 0x00, 0x00, 0x00, 0x28, 0x00, 0x00, 0x00, 0x00, 0x00, 0x06, 0x00, 0x08, 0x00, 0x04, 0x00, 0x06, 0x00, 0x00, 0x00, 0x04, 0x00, 0x00, 0x00, 0x01, 0x00, 0x00, 0x00, 0xeb, 0x03, 0x00, 0x00, 0x0c, 0x00, 0x18, 0x00, 0x14, 0x00, 0x10, 0x00, 0x0c, 0x00, 0x04, 0x00, 0x0c, 0x00, 0x00, 0x00, 0x11, 0x82, 0x38, 0x1d, 0xf5, 0x03, 0x17, 0xac, 0x02, 0x00, 0x00, 0x00, 0x02, 0x00, 0x00, 0x00, 0x04, 0x00, 0x00, 0x00, 0x06, 0x00, 0x00, 0x00, 0x32, 0x2e, 0x31, 0x39, 0x2e, 0x30, 0x00, 0x00, 0x92, 0xcf, 0xff, 0xff, 0x04, 0x00, 0x00, 0x00, 0x10, 0x00, 0x00, 0x00, 0x00, 0x00, 0x00, 0x00, 0x00, 0x00, 0x00, 0x00, 0x00, 0x00, 0x00, 0x00, 0x00, 0x00, 0x00, 0x00, 0xae, 0xcf, 0xff, 0xff, 0x04, 0x00, 0x00, 0x00, 0x10, 0x00, 0x00, 0x00, 0x31, 0x2e, 0x31, 0x34, 0x2e, 0x30, 0x00, 0x00, 0x00, 0x00, 0x00, 0x00, 0x00, 0x00, 0x00, 0x00, 0x98, 0xcf, 0xff, 0xff, 0x9c, 0xcf, 0xff, 0xff, 0xa0, 0xcf, 0xff, 0xff, 0xa4, 0xcf, 0xff, 0xff, 0xda, 0xcf, 0xff, 0xff, 0x04, 0x00, 0x00, 0x00, 0x80, 0x25, 0x00, 0x00, 0xd3, 0xfb, 0x45, 0xdc, 0x69, 0x87, 0xda, 0xf7, 0xa0, 0x6b, 0x65, 0x7d, 0x17, 0x9b, 0xeb, 0xad, 0xf6, 0xbb, 0x1e, 0x2f, 0x34, 0x2f, 0xc2, 0x2e, 0xaf, 0x9e, 0xac, 0x1f, 0xb0, 0x7c, 0x37, 0x01, 0x88, 0x81, 0x66, 0x03, 0x68, 0x9c, 0xb0, 0xdd, 0x08, 0xb3, 0xa9, 0x10, 0x6a, 0xac, 0x0c, 0xc1, 0xde, 0xd9, 0xda, 0xb3, 0x1b, 0x23, 0xd6, 0x59, 0xcf, 0x67, 0xeb, 0x82, 0xae, 0x56, 0xb5, 0x25, 0xc0, 0xa6, 0x31, 0x8d, 0xe4, 0xe3, 0xdb, 0xa8, 0xc3, 0x67, 0xba, 0xad, 0x1d, 0x9e, 0xa7, 0xc9, 0x9d, 0xac, 0xd3, 0x32, 0x05, 0xc3, 0xb7, 0xf3, 0x9e, 0x51, 0x9a, 0xd0, 0xae, 0x1d, 0x1b, 0x29, 0x33, 0x3b, 0xd3, 0x32, 0xb5, 0xa8, 0x3e, 0xa5, 0xb4, 0x2f, 0x31, 0xdf, 0x47, 0xbc, 0xab, 0x5b, 0xc0, 0xf0, 0x88, 0x4f, 0xd6, 0x97, 0x54, 0xea, 0xec, 0x04, 0x6e, 0x03, 0xa4, 0x1f, 0xbf, 0xf0, 0xe1, 0xae, 0xca, 0x5f, 0x2d, 0x99, 0x4a, 0x4d, 0xa3, 0xbc, 0x1c, 0x71, 0xcb, 0x1f, 0x2b, 0xf7, 0x9d, 0xa5, 0x90, 0x78, 0x7c, 0x08, 0xf6, 0x1b, 0x8d, 0xbd, 0xc6, 0x67, 0xbb, 0x38, 0x7b, 0xa1, 0x1b, 0x6d, 0x1f, 0xb1, 0x70, 0xf7, 0xff, 0xcf, 0xa6, 0x7d, 0x94, 0x4b, 0x45, 0xc4, 0x48, 0x25, 0x8a, 0xf8, 0x0c, 0xe8, 0xaf, 0xb9, 0xe5, 0x04, 0x26, 0x25, 0x9c, 0x6e, 0xfd, 0xad, 0x0e, 0xf7, 0xab, 0xc8, 0x95, 0xc3, 0x06, 0x7f, 0x2b, 0x69, 0xec, 0x9f, 0x1d, 0x22, 0xa6, 0x93, 0x30, 0x3c, 0x39, 0x0e, 0x9c, 0x98, 0x88, 0xf4, 0x28, 0xce, 0x7e, 0x44, 0x10, 0x68, 0x27, 0xa5, 0xa5, 0xe6, 0x8f, 0x41, 0xa0, 0xfc, 0xba, 0x0e, 0xbd, 0xbe, 0x5b, 0x20, 0xf4, 0x90, 0x8b, 0x27, 0x11, 0x56, 0x54, 0x05, 0x27, 0xdc, 0xec, 0x71, 0xc2, 0xf4, 0x96, 0x93, 0x44, 0x31, 0x39, 0x87, 0x69, 0x48, 0xf4, 0xb9, 0xf7, 0x88, 0x8f, 0xec, 0xda, 0xfb, 0x0d, 0x41, 0xac, 0x8c, 0x3f, 0xb1, 0xb1, 0x64, 0xb3, 0xab, 0x8c, 0xee, 0x49, 0xa8, 0x62, 0x0e, 0x10, 0x11, 0x74, 0xc3, 0x9f, 0xd2, 0x3f, 0xad, 0x5f, 0x23, 0x49, 0x0d, 0xf7, 0x9d, 0x78, 0xd1, 0x3e, 0xcf, 0xba, 0x7f, 0x5e, 0xb8, 0xbf, 0x65, 0xb8, 0x4f, 0xfe, 0xc2, 0x52, 0x4e, 0xda, 0x31, 0x01, 0x4b, 0x4d, 0x23, 0x1e, 0x45, 0xa2, 0x12, 0x26, 0xcd, 0x15, 0xb0, 0x15, 0x1d, 0xde, 0x57, 0xfb, 0xae, 0x19, 0xc2, 0xbc, 0xf0, 0x36, 0x3c, 0x02, 0x36, 0x3a, 0x2b, 0xf0, 0x21, 0xde, 0x0c, 0xc7, 0x52, 0xdd, 0xb1, 0x9a, 0xd1, 0xd0, 0x02, 0xf6, 0x16, 0x30, 0xd2, 0xce, 0x5b, 0xe1, 0x47, 0x2e, 0xff, 0x5a, 0xe7, 0x5b, 0x02, 0x32, 0xaa, 0x9f, 0x34, 0xd5, 0x5a, 0x07, 0xd0, 0xf1, 0xbd, 0x03, 0x1f, 0x29, 0x03, 0x55, 0xec, 0x31, 0x03, 0xc4, 0x53, 0x1d, 0xa0, 0xdb, 0x5b, 0xb6, 0x5b, 0xbf, 0xb0, 0x2e, 0x6d, 0x60, 0x14, 0xa2, 0x66, 0xe8, 0x97, 0x3c, 0x33, 0xec, 0xc5, 0x87, 0xa8, 0xc2, 0xd7, 0x29, 0xb2, 0xff, 0x14, 0x96, 0xdd, 0xff, 0xae, 0x44, 0xa7, 0xd5, 0x61, 0xc6, 0xde, 0x4a, 0xbd, 0x81, 0x94, 0x26, 0xb4, 0x9c, 0x2a, 0x26, 0xae, 0xdf, 0xf8, 0xc5, 0xd5, 0xfe, 0x9a, 0x49, 0x5b, 0xfc, 0x39, 0xc4, 0xae, 0x07, 0x5d, 0x08, 0x0b, 0xff, 0x19, 0x71, 0x82, 0xcf, 0x8a, 0xbc, 0x6f, 0xac, 0x46, 0xb5, 0x8c, 0xad, 0xe9, 0xff, 0x2c, 0x34, 0x62, 0x1f, 0x66, 0x0b, 0x13, 0xf7, 0x21, 0x33, 0xac, 0x8d, 0x5d, 0x3a, 0xe3, 0xf7, 0x9f, 0x23, 0x3c, 0x55, 0x8e, 0x94, 0x4d, 0x10, 0x9d, 0x17, 0xb5, 0x97, 0x66, 0x08, 0xd2, 0x24, 0xf8, 0x86, 0x90, 0xff, 0x27, 0x95, 0xf3, 0xd5, 0xb2, 0x6d, 0xe2, 0x71, 0x4d, 0x96, 0x5c, 0xe1, 0xb7, 0xf6, 0x8f, 0x5a, 0x05, 0x42, 0x03, 0xd5, 0x97, 0x9b, 0x5c, 0x8d, 0x67, 0x6d, 0x32, 0x1c, 0x36, 0xc8, 0x1a, 0xf8, 0x24, 0x42, 0xd3, 0x9a, 0xb9, 0x26, 0xf6, 0x83, 0x18, 0x3b, 0x21, 0x89, 0x57, 0x46, 0x9a, 0x16, 0xa2, 0x92, 0xa4, 0x2b, 0x5b, 0xb7, 0xfa, 0xa6, 0xca, 0x81, 0x5e, 0x8a, 0x4f, 0x42, 0x34, 0xdc, 0x3d, 0xb1, 0x2d, 0x2b, 0x26, 0x10, 0xba, 0xb1, 0x07, 0x11, 0xc4, 0x0e, 0xfc, 0x5b, 0x05, 0x10, 0xe1, 0x1f, 0x44, 0xdd, 0xb9, 0x41, 0x45, 0xfd, 0x8f, 0x81, 0xe8, 0x3c, 0x8d, 0xf4, 0xd1, 0x6c, 0xcf, 0x2f, 0xeb, 0x29, 0xac, 0xa2, 0x01, 0x49, 0x37, 0x9e, 0x74, 0x16, 0x42, 0xfc, 0x24, 0x7d, 0x82, 0x8d, 0xc8, 0xac, 0xc8, 0x4a, 0x23, 0xd1, 0x1e, 0xd9, 0x23, 0xaf, 0x48, 0x7e, 0xbe, 0x6e, 0x35, 0x9d, 0x2c, 0x84, 0x63, 0xb1, 0xe5, 0x32, 0x05, 0x04, 0xd1, 0x6d, 0x95, 0xb6, 0x29, 0x7c, 0xd8, 0x57, 0xaa, 0x08, 0xa2, 0xe3, 0x19, 0x04, 0xa3, 0xad, 0x65, 0xf6, 0x3f, 0xee, 0x13, 0x66, 0x1e, 0x75, 0xb3, 0xc3, 0xcf, 0x72, 0x1c, 0x93, 0x22, 0x26, 0xa8, 0x49, 0xc1, 0xb1, 0x6b, 0x4d, 0x0e, 0xc5, 0x4d, 0x73, 0xdd, 0x97, 0x1a, 0x62, 0x8f, 0xab, 0x94, 0x4c, 0xe7, 0x6d, 0xb8, 0xfa, 0x38, 0x71, 0xdf, 0x76, 0x7f, 0xe7, 0xcb, 0x70, 0x2f, 0x97, 0x9e, 0x9d, 0xf8, 0xee, 0x14, 0x69, 0x24, 0x63, 0xdb, 0xe2, 0x14, 0x31, 0xa2, 0x7e, 0x91, 0x1d, 0x8f, 0xf0, 0x86, 0x54, 0x2c, 0xbe, 0x9f, 0x74, 0x06, 0x89, 0xf5, 0x24, 0xa6, 0xaa, 0xc0, 0xb0, 0x2d, 0x9e, 0x58, 0xb2, 0xfc, 0xb7, 0xfd, 0x9e, 0xd6, 0x23, 0x57, 0xd1, 0xec, 0x1d, 0xf7, 0x33, 0x59, 0x2b, 0x2e, 0x62, 0xf5, 0xaa, 0xdb, 0x5d, 0x1e, 0x39, 0x5b, 0x23, 0xfd, 0xad, 0xf2, 0x0c, 0x68, 0x8a, 0x25, 0xcc, 0x49, 0x40, 0xee, 0x90, 0xbd, 0x74, 0xc4, 0x3c, 0xeb, 0x9d, 0x6b, 0x4b, 0x69, 0x51, 0xcd, 0xb5, 0x69, 0xff, 0x73, 0xb5, 0x10, 0x98, 0x1d, 0x0e, 0x94, 0x07, 0x9f, 0xbf, 0x1f, 0x10, 0xd4, 0xce, 0x38, 0xd8, 0x9e, 0x32, 0x35, 0x10, 0x05, 0x81, 0x58, 0x96, 0xdb, 0xbb, 0xa5, 0x55, 0xa9, 0xe5, 0xc6, 0xd6, 0x53, 0x69, 0x9a, 0x0b, 0xf1, 0x98, 0x70, 0x2f, 0x67, 0x54, 0xee, 0x2d, 0xd7, 0x56, 0x0f, 0xd2, 0x5f, 0xd5, 0xbf, 0xe1, 0x8c, 0x5b, 0x66, 0x75, 0xf7, 0x58, 0xae, 0x11, 0x19, 0xfa, 0x1b, 0x07, 0x71, 0x9a, 0x9a, 0xf0, 0x6e, 0x55, 0x12, 0x5f, 0x3a, 0x4d, 0x75, 0x28, 0x48, 0x69, 0xe4, 0xdb, 0x59, 0x5d, 0x97, 0x19, 0xc7, 0x10, 0x5f, 0x15, 0x0e, 0xa4, 0xa1, 0x06, 0x11, 0xf2, 0xec, 0xf0, 0x54, 0x45, 0x3e, 0xcd, 0xb8, 0x96, 0x59, 0xb7, 0x71, 0xf6, 0xa3, 0xe5, 0xe6, 0x2a, 0x50, 0x0d, 0xa9, 0x52, 0xf5, 0x18, 0x91, 0xd9, 0x23, 0xe4, 0x92, 0x56, 0x49, 0xf6, 0x30, 0x44, 0xe1, 0xc0, 0x03, 0x0f, 0x49, 0x1d, 0x17, 0x54, 0x5c, 0xdf, 0x61, 0x06, 0x5c, 0xb0, 0x55, 0xbc, 0xd1, 0x49, 0x65, 0x66, 0xf0, 0xba, 0x9d, 0xd0, 0x18, 0xe9, 0xe9, 0x42, 0xcd, 0x46, 0x34, 0xd0, 0xc9, 0x5d, 0x55, 0x67, 0x3f, 0x89, 0x63, 0xe6, 0xe7, 0x16, 0xfd, 0xf0, 0x0b, 0x4c, 0xab, 0xfa, 0xd3, 0xa6, 0x0c, 0x1d, 0x3b, 0x57, 0x09, 0x9e, 0xcd, 0x27, 0x13, 0xf7, 0xbf, 0xc8, 0x41, 0x4f, 0x54, 0x8d, 0x04, 0x06, 0x43, 0x31, 0x2d, 0xb3, 0xbc, 0xe4, 0x6d, 0x27, 0x50, 0xbd, 0xb8, 0x94, 0x4a, 0x03, 0xc8, 0xc9, 0x97, 0xd6, 0xe8, 0x6a, 0xbd, 0x52, 0xa1, 0x81, 0xd7, 0x91, 0x86, 0xd0, 0x9b, 0x0d, 0x28, 0x1d, 0x4b, 0xa1, 0xee, 0x0d, 0x33, 0xba, 0x1a, 0x52, 0x50, 0xee, 0xc3, 0xb2, 0x8d, 0x6c, 0x20, 0xca, 0x22, 0x8f, 0x3c, 0x10, 0x1e, 0x6a, 0x45, 0x14, 0x00, 0x2b, 0xc2, 0x01, 0x28, 0xd2, 0x05, 0xb5, 0xf9, 0xaf, 0xbd, 0x68, 0x18, 0xaf, 0x20, 0x05, 0xd6, 0xa7, 0x3e, 0xba, 0x58, 0x4e, 0xd2, 0xf8, 0xfa, 0x8f, 0xf1, 0x1b, 0xf6, 0xb1, 0xae, 0xad, 0xcc, 0x38, 0x9b, 0xcc, 0x20, 0xfc, 0xf3, 0xb1, 0xfc, 0xa6, 0xd0, 0x17, 0x1d, 0x47, 0xc3, 0x1e, 0x50, 0x2e, 0x91, 0xcb, 0xe0, 0x9d, 0x94, 0x02, 0xcd, 0x3a, 0xc1, 0x2e, 0xee, 0x46, 0x20, 0x64, 0x67, 0x6a, 0xf6, 0xc1, 0xbd, 0xae, 0xfd, 0xdd, 0xcb, 0xa3, 0x97, 0xed, 0x05, 0x0b, 0xd7, 0x81, 0xb8, 0xca, 0x11, 0x6d, 0x40, 0x14, 0x47, 0x1c, 0x26, 0x5e, 0x97, 0xf2, 0x6b, 0x03, 0x98, 0xb3, 0x29, 0x55, 0x29, 0x63, 0x07, 0x41, 0x4e, 0x05, 0xcd, 0x5d, 0x6b, 0x43, 0x9c, 0x5c, 0x1c, 0x0e, 0xd8, 0x6e, 0x52, 0x4d, 0x64, 0xb0, 0xcf, 0x1f, 0xdb, 0x17, 0x59, 0x6f, 0x65, 0x4e, 0x29, 0x05, 0xfd, 0x29, 0xd4, 0xef, 0x20, 0x03, 0x28, 0x03, 0xac, 0x8a, 0xb2, 0x40, 0xf4, 0x1a, 0x63, 0xb0, 0xa8, 0x1c, 0xcb, 0xd2, 0xf6, 0xa0, 0xba, 0xaa, 0x03, 0xe1, 0x31, 0xa7, 0xef, 0x5c, 0x32, 0x1c, 0xc1, 0x4c, 0x45, 0xec, 0xa5, 0x8f, 0xc8, 0xe5, 0xbf, 0x99, 0xca, 0x19, 0xc5, 0x3a, 0xf4, 0xe2, 0xee, 0x38, 0x26, 0x3a, 0x77, 0x98, 0xc7, 0x43, 0x41, 0xae, 0x91, 0x09, 0xa0, 0xa1, 0xdc, 0xee, 0x28, 0x61, 0x59, 0x69, 0x33, 0xb1, 0xc4, 0xe7, 0x36, 0x6d, 0x6a, 0x70, 0xce, 0x89, 0x76, 0xbb, 0x85, 0x4b, 0x87, 0xaa, 0xe5, 0x6b, 0xc6, 0xa1, 0x8b, 0x93, 0x09, 0xb1, 0xe2, 0x32, 0xe7, 0x4b, 0x86, 0xcb, 0xab, 0xd0, 0x7b, 0x33, 0xdc, 0x16, 0x6c, 0xc5, 0xbd, 0xbc, 0x2c, 0x3c, 0x7e, 0xde, 0x6d, 0xb2, 0x39, 0xf4, 0x90, 0xb4, 0xb9, 0xf8, 0xd3, 0x48, 0x47, 0xe2, 0x1b, 0x3f, 0x3f, 0x5b, 0x9f, 0x43, 0x3a, 0x15, 0xf5, 0x2e, 0x0c, 0x8c, 0x70, 0xe7, 0x5f, 0xac, 0x52, 0x60, 0x5a, 0x66, 0x12, 0x60, 0x0c, 0x92, 0x52, 0xf9, 0x72, 0xfc, 0xf9, 0x37, 0x09, 0x33, 0x9d, 0xb1, 0x6d, 0xdd, 0x2a, 0xad, 0x04, 0xbd, 0x33, 0x63, 0x13, 0x92, 0xcc, 0xa4, 0x88, 0x60, 0x41, 0xd9, 0x28, 0xe9, 0xa7, 0x7f, 0x98, 0x1c, 0x9f, 0xf5, 0xf1, 0x2d, 0x4d, 0xf4, 0x62, 0x51, 0x54, 0xbe, 0x04, 0xe6, 0xcf, 0xe4, 0x34, 0xee, 0x68, 0x43, 0x3b, 0xa2, 0x04, 0x95, 0x08, 0x53, 0xf1, 0xdb, 0x63, 0x8e, 0x3b, 0xc2, 0xb9, 0x2c, 0xac, 0x0f, 0x75, 0xe3, 0xfd, 0x36, 0x59, 0xe6, 0x93, 0x92, 0x81, 0x5a, 0x4c, 0x50, 0x82, 0x23, 0xdf, 0x00, 0xd9, 0x35, 0x07, 0x2e, 0xc7, 0xf6, 0xf4, 0xa3, 0x8d, 0xd9, 0xa0, 0x86, 0xd5, 0x73, 0xb0, 0xf8, 0x81, 0x91, 0x33, 0xd0, 0x2c, 0x4e, 0xe7, 0xf2, 0x5e, 0x03, 0x75, 0x67, 0x87, 0x9c, 0x0a, 0x02, 0x54, 0x2c, 0xb0, 0x9b, 0xa3, 0x8b, 0x9a, 0x32, 0x08, 0x90, 0xb5, 0x90, 0xef, 0x50, 0xc2, 0x01, 0xf6, 0xc1, 0xd7, 0xd9, 0x60, 0x8c, 0xe3, 0xe1, 0x17, 0xd7, 0x69, 0x3e, 0xa1, 0xd0, 0xb8, 0x77, 0x8c, 0x5d, 0x69, 0x4f, 0x58, 0x5b, 0xda, 0x34, 0xcc, 0x32, 0xd6, 0xa1, 0x8a, 0xa1, 0xbf, 0x17, 0x5d, 0x47, 0x23, 0xc6, 0x16, 0xef, 0x84, 0x19, 0x9b, 0x73, 0x1d, 0x3e, 0x3e, 0xa1, 0x41, 0x0b, 0x6c, 0x38, 0x2a, 0x8f, 0x0f, 0x10, 0x08, 0xd0, 0xe9, 0xaa, 0x44, 0xdd, 0x63, 0xc5, 0xfd, 0xca, 0xf6, 0x21, 0x19, 0x3b, 0xa5, 0x10, 0x13, 0xc6, 0x47, 0x56, 0x34, 0x43, 0xba, 0xd4, 0xa6, 0x30, 0xe1, 0xf3, 0x83, 0xa7, 0xa8, 0xef, 0xb0, 0xbd, 0x5c, 0x2f, 0xad, 0x2d, 0xf5, 0x27, 0xc6, 0x30, 0x6d, 0xc8, 0x83, 0xfd, 0x62, 0x45, 0xba, 0xd7, 0xd2, 0x10, 0x28, 0x81, 0xb9, 0x61, 0x4e, 0x2d, 0x4b, 0xe4, 0xd7, 0xed, 0x10, 0xed, 0xd0, 0x30, 0xef, 0x07, 0x0f, 0x5f, 0xe6, 0xac, 0x74, 0x9d, 0xa1, 0x53, 0xc6, 0xe0, 0x09, 0xbe, 0xcf, 0x4d, 0xee, 0x15, 0xbf, 0x87, 0x67, 0x52, 0x13, 0x07, 0x6d, 0x2b, 0x55, 0xab, 0x29, 0xe8, 0xa6, 0xb5, 0x49, 0xb2, 0x42, 0x50, 0xba, 0xfb, 0x1d, 0x1f, 0x12, 0xe3, 0x8e, 0x3f, 0x10, 0xf7, 0x83, 0xac, 0xcc, 0x2c, 0xd3, 0x06, 0xee, 0x1a, 0x2e, 0x21, 0xfe, 0xe3, 0x92, 0xc7, 0xfa, 0xb4, 0x90, 0xe1, 0x3b, 0xb7, 0xd4, 0x2a, 0xac, 0x9e, 0x4e, 0x22, 0xd0, 0x63, 0x13, 0x35, 0x65, 0x9d, 0xf4, 0xa4, 0x3c, 0x24, 0x6b, 0x0b, 0x18, 0x67, 0x4b, 0x06, 0x6d, 0xe5, 0x62, 0x25, 0x83, 0x6f, 0x10, 0x21, 0x9c, 0x51, 0x62, 0x03, 0xd1, 0x4f, 0x4c, 0x01, 0xea, 0xbd, 0x03, 0x03, 0x15, 0x27, 0xa3, 0x5a, 0x63, 0x37, 0xd0, 0xa5, 0x34, 0x47, 0x21, 0x51, 0x10, 0x53, 0x15, 0x81, 0x96, 0xb0, 0xaf, 0x6d, 0xca, 0x0d, 0xfa, 0x3c, 0xe7, 0xc5, 0x91, 0x84, 0xd5, 0x30, 0xe7, 0x9c, 0x2a, 0xbe, 0x5b, 0x0a, 0x24, 0xfa, 0x12, 0x1b, 0x01, 0x30, 0xf2, 0x03, 0x00, 0xaa, 0x3d, 0xf8, 0x60, 0x73, 0xf1, 0xcd, 0xe6, 0xc6, 0x4e, 0xd1, 0x8c, 0x02, 0x49, 0x0a, 0x59, 0xea, 0x18, 0x14, 0x11, 0x36, 0xc9, 0xd3, 0x8e, 0xb5, 0x02, 0x1a, 0xdc, 0xce, 0xd3, 0xb7, 0x59, 0x9e, 0x09, 0xa8, 0xa6, 0xa6, 0xf4, 0x1b, 0xd7, 0x21, 0xcc, 0x8f, 0xb3, 0x2c, 0x0e, 0x60, 0x60, 0x60, 0x91, 0xae, 0x4c, 0x6f, 0xfa, 0x2e, 0x94, 0xa4, 0xe8, 0x87, 0x3b, 0x44, 0xe8, 0x93, 0xa4, 0xfd, 0xf1, 0xf7, 0x2e, 0x92, 0x47, 0x6c, 0xac, 0xdd, 0xf0, 0xf5, 0x98, 0x85, 0x91, 0x3e, 0xbf, 0x26, 0x54, 0x6f, 0x3b, 0x81, 0xcd, 0x16, 0x25, 0x31, 0x3b, 0x08, 0x83, 0xac, 0x6a, 0x59, 0x29, 0x92, 0x6f, 0xfe, 0x60, 0x05, 0xe9, 0xd5, 0x33, 0x0c, 0xd6, 0x12, 0x2c, 0x8c, 0xcc, 0x5e, 0x1d, 0xf8, 0x92, 0x1b, 0x62, 0x52, 0xc6, 0x32, 0x7b, 0xd6, 0x20, 0xa9, 0xe1, 0xf1, 0x51, 0x8a, 0x01, 0x65, 0x0b, 0xd1, 0x7b, 0x0a, 0xe9, 0x0a, 0xf3, 0xe1, 0x9f, 0xab, 0xf4, 0x7f, 0x11, 0x32, 0xcc, 0xf4, 0xa9, 0x71, 0x5f, 0x4e, 0xcc, 0x9d, 0x03, 0xf7, 0x47, 0x73, 0x7d, 0x0c, 0x02, 0xc8, 0x35, 0x42, 0xa0, 0x45, 0xe1, 0xdf, 0xe9, 0x8e, 0x02, 0x32, 0xca, 0xef, 0x97, 0x6c, 0xcd, 0xbd, 0xc4, 0xbe, 0xd4, 0x56, 0x86, 0x61, 0xbb, 0xfd, 0xb6, 0xea, 0x50, 0x2c, 0x13, 0x06, 0xb8, 0xac, 0x2e, 0x7e, 0x1a, 0x21, 0xce, 0xcd, 0xe0, 0x91, 0x93, 0xd4, 0xc0, 0x3a, 0xed, 0x08, 0xbb, 0x14, 0xab, 0x93, 0x4e, 0x11, 0x37, 0xe8, 0x92, 0x1a, 0xa6, 0x84, 0x67, 0x30, 0x53, 0xd6, 0xf1, 0x7e, 0x72, 0x74, 0xcd, 0x6f, 0x30, 0x74, 0x49, 0x0f, 0xd7, 0x7d, 0x9b, 0xf2, 0x97, 0x25, 0x02, 0x42, 0x38, 0x91, 0x8e, 0xf3, 0xc1, 0x42, 0x9f, 0x5b, 0x9e, 0xe6, 0xcf, 0xd7, 0x94, 0x48, 0x3f, 0xc4, 0x0c, 0xc8, 0x4e, 0x0f, 0xaf, 0x33, 0xb9, 0xb4, 0x3c, 0x50, 0xdf, 0x85, 0xf3, 0x33, 0xce, 0x60, 0x13, 0xed, 0xea, 0x39, 0x5a, 0x51, 0x0d, 0xc0, 0x9c, 0x27, 0xfa, 0xd9, 0x41, 0xc2, 0xc0, 0xf6, 0xa8, 0xbc, 0x20, 0x45, 0xa8, 0xac, 0xf9, 0x88, 0x0f, 0x7b, 0xb9, 0x12, 0xd0, 0x02, 0x86, 0x3d, 0x34, 0x2e, 0xf4, 0xd0, 0x11, 0x9f, 0x60, 0x7e, 0x68, 0x30, 0x7b, 0xae, 0xe1, 0xb9, 0x16, 0x6c, 0x3a, 0x46, 0xa3, 0x50, 0x3e, 0x70, 0x69, 0x9e, 0x91, 0xcd, 0x47, 0x8c, 0x48, 0x9e, 0xf9, 0x86, 0x6c, 0x81, 0xde, 0x13, 0x00, 0x01, 0x84, 0x8f, 0xbe, 0x3c, 0xbd, 0xf0, 0x1c, 0xce, 0x6e, 0x0a, 0x4b, 0xc7, 0x33, 0x50, 0x00, 0xaa, 0xd8, 0x61, 0xc5, 0x0b, 0xe9, 0x61, 0xcc, 0x77, 0xaf, 0x84, 0x44, 0xf5, 0x91, 0x92, 0xba, 0xf0, 0xc2, 0xd6, 0x46, 0xb7, 0xce, 0x44, 0x45, 0x7f, 0xac, 0xdb, 0x22, 0x12, 0xeb, 0xb1, 0x5b, 0xe7, 0xd3, 0x18, 0x07, 0x1c, 0x37, 0x65, 0xcb, 0x4f, 0xb4, 0xf1, 0xe1, 0xf3, 0xaf, 0x60, 0xbe, 0xc8, 0x04, 0x9f, 0x52, 0x9c, 0x59, 0x25, 0xd7, 0x58, 0xbe, 0x12, 0xc2, 0x12, 0x20, 0xc6, 0xfb, 0x3f, 0xb9, 0xe9, 0x50, 0xa7, 0x38, 0x71, 0xac, 0x3a, 0xd9, 0xa7, 0x1e, 0x44, 0x48, 0xcb, 0x08, 0x5a, 0xc2, 0x40, 0xb9, 0xff, 0x5b, 0x8e, 0xfa, 0xa2, 0x5f, 0x59, 0x0d, 0xb4, 0x33, 0xee, 0xa0, 0x16, 0x51, 0x5f, 0xce, 0xbc, 0xc5, 0x39, 0x76, 0xf3, 0x8c, 0x09, 0x42, 0x39, 0xed, 0x05, 0xf7, 0x18, 0xff, 0xcf, 0x23, 0xb9, 0xe3, 0x3b, 0x44, 0xaa, 0xa5, 0xef, 0x77, 0xe3, 0xbf, 0xd2, 0x2f, 0xc6, 0x89, 0x7f, 0x44, 0x04, 0x7f, 0x18, 0xef, 0x59, 0x95, 0xef, 0x26, 0xff, 0x34, 0xbf, 0x3e, 0xb0, 0xf4, 0xde, 0x1b, 0xba, 0xd7, 0xb4, 0xff, 0x5c, 0xa5, 0x5f, 0xd3, 0x1e, 0x5e, 0x9c, 0x29, 0x1b, 0xef, 0x5b, 0xef, 0xb2, 0x20, 0x33, 0x66, 0x0a, 0xdf, 0xb0, 0x37, 0xbe, 0x0e, 0xfb, 0x14, 0xdd, 0xc4, 0x47, 0x32, 0xac, 0xa1, 0x55, 0xc1, 0xaf, 0xbd, 0xb6, 0xbf, 0xe4, 0x1d, 0x3b, 0xc5, 0x28, 0x00, 0xa9, 0xf0, 0x1c, 0xf6, 0x94, 0xb3, 0x94, 0xf0, 0xa4, 0x08, 0xe4, 0x7d, 0x03, 0x34, 0x6d, 0x6d, 0xe6, 0x43, 0x29, 0x1e, 0x9f, 0x0e, 0xf9, 0x24, 0x53, 0x00, 0x9b, 0x21, 0xda, 0x2c, 0x9e, 0x9f, 0xe3, 0x01, 0xaf, 0x7d, 0x72, 0xad, 0x7d, 0x20, 0x08, 0x7a, 0x31, 0xab, 0xb9, 0x45, 0x3a, 0x3e, 0x69, 0xd0, 0x3a, 0x29, 0xa9, 0xf8, 0x4e, 0x59, 0xca, 0x5a, 0x2a, 0x5f, 0x40, 0xe9, 0x81, 0x2e, 0xca, 0x50, 0x38, 0x4d, 0xac, 0x2e, 0x97, 0xe6, 0x13, 0xad, 0x42, 0x87, 0xf0, 0xd2, 0xaf, 0xa0, 0xdb, 0x9c, 0x3b, 0x04, 0x6c, 0x43, 0x3e, 0x6e, 0xed, 0x8a, 0x73, 0xda, 0x63, 0xf1, 0x70, 0xc2, 0xc3, 0x98, 0x15, 0x72, 0x76, 0xa4, 0xf1, 0x2c, 0x44, 0xa1, 0xf6, 0xb0, 0xa5, 0x6e, 0xda, 0x79, 0x57, 0xbc, 0x06, 0xc7, 0x81, 0x89, 0xa0, 0xc7, 0xac, 0x82, 0x08, 0x26, 0xca, 0xbd, 0x9b, 0x95, 0xdf, 0xc8, 0xab, 0x92, 0x8e, 0xba, 0x22, 0x52, 0x91, 0x73, 0x2a, 0x62, 0x83, 0x1a, 0x46, 0x6e, 0x4c, 0xc2, 0x95, 0x0a, 0x4b, 0xae, 0x46, 0x3c, 0xe4, 0xbe, 0x5b, 0x81, 0xbe, 0xcf, 0x9f, 0xad, 0x5f, 0x33, 0xea, 0xbb, 0x24, 0xa5, 0x75, 0x5d, 0x4e, 0x8e, 0x5a, 0xdd, 0x46, 0x17, 0x08, 0x21, 0x64, 0x9b, 0x55, 0xab, 0xef, 0x0b, 0x13, 0xd4, 0xff, 0x29, 0x09, 0x07, 0x19, 0xbd, 0x25, 0x69, 0xcb, 0x5f, 0x13, 0xe5, 0xbf, 0xa4, 0x92, 0x0b, 0x96, 0xad, 0xfe, 0x9b, 0x90, 0x6e, 0x16, 0xe5, 0xd4, 0x0c, 0x1a, 0x69, 0x4f, 0x9d, 0x56, 0xca, 0x5a, 0x23, 0x82, 0xdc, 0x23, 0x73, 0xab, 0xf3, 0x4a, 0x2c, 0x25, 0x5b, 0xae, 0x83, 0x3b, 0x29, 0x48, 0x98, 0x48, 0xf3, 0x15, 0x55, 0x9c, 0x01, 0x12, 0xf8, 0x00, 0x2f, 0xcb, 0xad, 0x34, 0x53, 0x50, 0x44, 0xf3, 0x33, 0x49, 0xb6, 0x3e, 0x0d, 0x34, 0x35, 0xa4, 0xe8, 0x0f, 0xa7, 0xac, 0x82, 0xf3, 0x0b, 0x91, 0xb7, 0xcc, 0xb7, 0x24, 0xc6, 0x3a, 0x0a, 0x31, 0x29, 0x8f, 0x81, 0x2f, 0xcd, 0xa4, 0x4e, 0xc8, 0xf9, 0x9d, 0x95, 0x4c, 0x2c, 0x23, 0x8e, 0x82, 0xac, 0x68, 0x16, 0xe9, 0xb4, 0xc6, 0xf9, 0x6f, 0x3f, 0xd6, 0x49, 0xd0, 0x98, 0x8f, 0x84, 0x99, 0x58, 0x95, 0x13, 0x8d, 0xc8, 0xf0, 0x43, 0xf8, 0x52, 0xd4, 0x0e, 0xa9, 0x32, 0xdd, 0xd3, 0x77, 0xfc, 0xb9, 0x10, 0xa6, 0xc1, 0xc6, 0x85, 0x1c, 0x3f, 0xf3, 0xd6, 0x17, 0x45, 0x8b, 0x46, 0x03, 0x8f, 0xed, 0xf8, 0x4e, 0x07, 0x76, 0x37, 0x15, 0x2c, 0xbb, 0x17, 0xaa, 0xd2, 0x50, 0x56, 0x0c, 0x41, 0x4b, 0xf8, 0x2f, 0xf1, 0xc5, 0x5f, 0x3c, 0x05, 0xd6, 0xf7, 0xd6, 0xab, 0xf0, 0x3c, 0xdb, 0xba, 0xe5, 0x33, 0x45, 0xe9, 0xdd, 0xf0, 0x74, 0x15, 0xad, 0x52, 0x9d, 0xbe, 0x82, 0xed, 0x51, 0x61, 0xf8, 0x32, 0xd7, 0x9d, 0x8e, 0xc6, 0x13, 0x16, 0x81, 0xd7, 0x81, 0x55, 0xdf, 0x3c, 0x06, 0x53, 0x0b, 0x14, 0xb0, 0x62, 0x89, 0x2d, 0xa8, 0x30, 0x44, 0x2c, 0xcd, 0x2b, 0xb6, 0x39, 0xc0, 0x2e, 0xb5, 0x51, 0x18, 0x47, 0x41, 0xe0, 0x34, 0xb1, 0x48, 0x90, 0xe0, 0xab, 0x6b, 0xa1, 0xb8, 0x75, 0x1b, 0x4d, 0xba, 0xb3, 0xc4, 0x48, 0x1c, 0x21, 0x31, 0x90, 0x3d, 0xd0, 0x3c, 0x3e, 0x3a, 0x8d, 0x40, 0x23, 0x40, 0x90, 0x47, 0x99, 0x1c, 0x8c, 0x94, 0x2c, 0x0a, 0x68, 0x66, 0xeb, 0xf7, 0xb7, 0x2f, 0x88, 0xcf, 0x8a, 0x07, 0x60, 0x86, 0x39, 0x4f, 0x85, 0xaf, 0x4f, 0x64, 0xb7, 0x52, 0x40, 0x9f, 0x06, 0xe5, 0x71, 0xe9, 0x17, 0x1c, 0x5d, 0xbe, 0x98, 0x75, 0xfc, 0xae, 0xe8, 0x4d, 0x81, 0xff, 0x5d, 0x0a, 0x67, 0x58, 0xb8, 0x41, 0x8a, 0x20, 0x48, 0x06, 0x92, 0xf5, 0x4f, 0x05, 0x75, 0x4b, 0x2d, 0xf9, 0xff, 0xfc, 0x49, 0x9e, 0xb9, 0xf6, 0xb7, 0x2d, 0x25, 0x25, 0xee, 0xe7, 0x58, 0x9d, 0xfa, 0xac, 0x4d, 0xc6, 0x51, 0xff, 0xb8, 0x68, 0xf1, 0x48, 0xd9, 0xda, 0x49, 0xc5, 0x9e, 0x2c, 0x9a, 0xdc, 0xe9, 0xee, 0x34, 0x01, 0x8b, 0x56, 0x49, 0x8e, 0x74, 0x67, 0xbf, 0x02, 0x37, 0x82, 0xe6, 0x0e, 0xe1, 0x84, 0x9e, 0xda, 0xdf, 0xe0, 0xbd, 0xd6, 0xff, 0xd4, 0xf9, 0x90, 0xc9, 0x0f, 0xc1, 0xf7, 0x4b, 0x3c, 0xaa, 0x41, 0x90, 0x33, 0x8b, 0x6f, 0x81, 0xa7, 0x40, 0xc2, 0x0b, 0x47, 0x1d, 0xce, 0xfe, 0x79, 0x4e, 0x9d, 0x00, 0x5f, 0x90, 0xcd, 0x34, 0x34, 0xcd, 0xa2, 0x0a, 0x6e, 0x37, 0x5a, 0x6e, 0xd8, 0x86, 0x06, 0xd7, 0x85, 0xa7, 0x64, 0x0d, 0xf8, 0xc3, 0xd8, 0x63, 0x06, 0x8e, 0xe2, 0x07, 0x82, 0xbb, 0x4b, 0x86, 0x58, 0x3e, 0x9a, 0x26, 0xff, 0x5e, 0x95, 0x89, 0x47, 0xa8, 0xa2, 0x0f, 0xaf, 0xa1, 0x48, 0x4f, 0x07, 0x60, 0xd3, 0xc3, 0xd2, 0x47, 0x92, 0x2d, 0x63, 0xaa, 0x4f, 0x62, 0xc2, 0x26, 0x19, 0xc7, 0xdc, 0xe1, 0x61, 0x0a, 0xd8, 0xa5, 0xa7, 0x5e, 0x32, 0xd9, 0x40, 0x71, 0xf1, 0x5c, 0xe9, 0xf7, 0x43, 0xb6, 0x9a, 0x33, 0x3e, 0x76, 0x68, 0x89, 0xd3, 0xd5, 0xb1, 0xfc, 0x48, 0x9e, 0x9c, 0x4b, 0xf5, 0xae, 0xb6, 0xc0, 0x63, 0x91, 0xea, 0x4c, 0xcc, 0x7a, 0xfa, 0x50, 0x6e, 0x72, 0xfe, 0x5b, 0xe5, 0x31, 0x4d, 0xa2, 0xf4, 0xfd, 0x8e, 0xc2, 0xac, 0xa0, 0x79, 0xf3, 0x99, 0x8a, 0x98, 0x13, 0x54, 0x89, 0x37, 0x0b, 0x96, 0x87, 0xeb, 0x6e, 0xc2, 0x2a, 0x13, 0x76, 0x45, 0x3b, 0xfd, 0x9c, 0x95, 0xf1, 0xe7, 0x9e, 0x72, 0xc0, 0x08, 0xd0, 0xfa, 0xd2, 0xaf, 0x0b, 0x57, 0x49, 0xce, 0xa5, 0xb0, 0xdd, 0x49, 0xb6, 0xcd, 0x7b, 0x9c, 0xd6, 0x27, 0x32, 0xf2, 0x8e, 0x8b, 0xfc, 0xd5, 0xd5, 0x1d, 0xa1, 0xb0, 0x77, 0x4d, 0x95, 0x4f, 0xb5, 0x47, 0x71, 0x5d, 0x02, 0xbe, 0x2d, 0x0f, 0xfa, 0x56, 0x30, 0x9a, 0xfc, 0xc1, 0x4e, 0xee, 0x8c, 0xbc, 0xac, 0xee, 0x0c, 0xba, 0xa2, 0x66, 0x42, 0x03, 0xed, 0x42, 0x1c, 0x1e, 0x2b, 0x65, 0x15, 0x34, 0xc1, 0x81, 0xb5, 0xc8, 0x36, 0xaa, 0xea, 0x4a, 0x4d, 0x07, 0x04, 0xab, 0x9e, 0x95, 0x2d, 0x71, 0x95, 0x17, 0x9e, 0xf9, 0x2d, 0x2b, 0x61, 0x9f, 0xf6, 0xc7, 0xc1, 0x43, 0x87, 0xb4, 0xcb, 0xf0, 0x8f, 0x7a, 0x19, 0x6d, 0x1c, 0x57, 0xa5, 0xf2, 0x84, 0x16, 0xa6, 0xe3, 0x39, 0xd3, 0x8e, 0x3d, 0xba, 0xf5, 0x8d, 0xbf, 0x3e, 0x71, 0xd0, 0x22, 0x69, 0xd3, 0xd5, 0x29, 0x98, 0x57, 0x86, 0xbd, 0x91, 0x5a, 0x1c, 0x71, 0xe6, 0xae, 0x06, 0xaf, 0x62, 0xc8, 0x5a, 0xd3, 0x35, 0xb9, 0xd4, 0x5b, 0xf5, 0x61, 0xd3, 0x7c, 0x6e, 0x19, 0x50, 0xd4, 0x68, 0x67, 0x1b, 0xab, 0xfc, 0xef, 0x34, 0x70, 0x69, 0xb0, 0x96, 0xf6, 0x47, 0xac, 0xbe, 0xa0, 0xb5, 0xf2, 0x6b, 0x11, 0x4f, 0x1b, 0x51, 0xb6, 0x1f, 0xa5, 0x66, 0xcb, 0x79, 0xcd, 0x94, 0xe0, 0x7f, 0x68, 0x4e, 0x3f, 0x74, 0xf4, 0x47, 0x33, 0x75, 0xf9, 0x54, 0xd1, 0xc5, 0x1b, 0x3f, 0x45, 0x19, 0x75, 0xe2, 0x91, 0xb6, 0x6e, 0x15, 0xd3, 0xcd, 0x4b, 0x2c, 0x29, 0xd4, 0xf3, 0x18, 0x8b, 0xae, 0xeb, 0x4d, 0x92, 0xb6, 0xf2, 0x44, 0x48, 0x3a, 0xda, 0x51, 0x53, 0xb8, 0x64, 0x72, 0x86, 0xea, 0x92, 0x4d, 0xf1, 0x5d, 0xab, 0x39, 0x5d, 0x31, 0xd0, 0x27, 0xf7, 0xcc, 0xf8, 0x38, 0x9b, 0xcd, 0x42, 0x07, 0x37, 0x97, 0xb7, 0x03, 0xe5, 0xa2, 0xb3, 0x2d, 0xcd, 0x36, 0xab, 0x1c, 0xc4, 0xa9, 0x4d, 0x01, 0xa9, 0x75, 0x0a, 0x52, 0x6d, 0xd2, 0x8c, 0x9c, 0x01, 0x3c, 0x9e, 0x9d, 0x54, 0x6b, 0x42, 0x1c, 0x82, 0xe7, 0xea, 0xfc, 0xde, 0x4c, 0xe4, 0x48, 0x14, 0xcd, 0x33, 0x55, 0x94, 0x4d, 0x61, 0x6f, 0x63, 0xcb, 0x67, 0x95, 0x3a, 0x5b, 0xa8, 0x9c, 0xb1, 0x96, 0xce, 0x59, 0x67, 0x54, 0x40, 0x6f, 0x99, 0x4d, 0x3b, 0x00, 0x68, 0x36, 0x48, 0xc6, 0x65, 0x98, 0xb8, 0x86, 0xfa, 0xd5, 0xc4, 0x76, 0xf1, 0xf7, 0xde, 0xdb, 0xaa, 0xd3, 0xa5, 0xdb, 0x88, 0xd8, 0xa9, 0x36, 0x5f, 0xfa, 0xfd, 0x8a, 0x4c, 0x66, 0x34, 0xdd, 0xb2, 0x62, 0x84, 0x1a, 0xde, 0x57, 0x61, 0x56, 0xe6, 0x0e, 0xa9, 0xb3, 0x13, 0x1d, 0x01, 0xce, 0x29, 0xc3, 0xf5, 0xa0, 0x1c, 0x22, 0xc6, 0xcb, 0x95, 0x3e, 0x14, 0x1d, 0xf3, 0xfc, 0xd0, 0x10, 0xab, 0xe4, 0x72, 0xf5, 0x81, 0xcd, 0xe3, 0xad, 0x22, 0x07, 0xd9, 0x1e, 0xbb, 0x96, 0x28, 0x42, 0x5f, 0xae, 0xe4, 0x33, 0xa7, 0x01, 0xe0, 0x65, 0xf9, 0x5d, 0xb9, 0x30, 0x53, 0x08, 0xf9, 0xea, 0x1c, 0x93, 0x51, 0xc1, 0x22, 0xfa, 0x1f, 0x04, 0x5e, 0x46, 0x0c, 0x15, 0x41, 0x1f, 0xfb, 0xe9, 0xd6, 0x61, 0x42, 0x14, 0x87, 0xe0, 0x79, 0x9d, 0x52, 0xaf, 0xfc, 0x91, 0xfc, 0x3e, 0x24, 0xd3, 0x25, 0x51, 0x00, 0x24, 0xd0, 0x13, 0xc6, 0x11, 0xe0, 0x34, 0x69, 0x6f, 0x83, 0x75, 0x61, 0x9a, 0xcd, 0x88, 0x27, 0x60, 0x88, 0xb5, 0x32, 0x62, 0x3f, 0x26, 0x21, 0x55, 0x31, 0x27, 0xa7, 0xce, 0x77, 0x6d, 0xa7, 0x1f, 0xad, 0x0b, 0x03, 0xc6, 0x28, 0xc0, 0x8c, 0xe5, 0x8a, 0xd9, 0xa1, 0x09, 0xc7, 0x25, 0x43, 0x68, 0x56, 0xba, 0xb5, 0xb5, 0xc8, 0xef, 0x14, 0xb6, 0xef, 0xb7, 0x30, 0x82, 0xa2, 0x6f, 0x26, 0xf0, 0x8c, 0xa7, 0x9d, 0x12, 0x70, 0xe4, 0xe2, 0x34, 0x1e, 0xbe, 0x9a, 0x4f, 0xe7, 0x22, 0x5e, 0xfc, 0x0e, 0x8a, 0xb0, 0xd2, 0x27, 0x7b, 0x92, 0x09, 0x12, 0x95, 0x0d, 0xc6, 0x54, 0xc3, 0xf5, 0x8e, 0xe6, 0xaa, 0x12, 0x4c, 0xbe, 0x3c, 0xdb, 0x1c, 0x72, 0x7f, 0x3d, 0xd2, 0xe9, 0xe7, 0xb2, 0x0a, 0x96, 0xb1, 0xe3, 0x67, 0x99, 0xda, 0x49, 0x8d, 0x33, 0xe9, 0xed, 0x99, 0x3c, 0x6a, 0xc3, 0xaa, 0x87, 0x9b, 0xdd, 0xda, 0x9a, 0x5a, 0x92, 0x18, 0xfd, 0xc4, 0x6b, 0x74, 0x27, 0xfe, 0xb2, 0xc3, 0x59, 0x40, 0x3a, 0x92, 0x77, 0x00, 0x36, 0xff, 0xad, 0x5f, 0xc9, 0xcc, 0x11, 0xef, 0x2f, 0x89, 0xdd, 0xa1, 0x75, 0xf1, 0xe1, 0x6b, 0xa6, 0xbe, 0xba, 0x40, 0x52, 0xb9, 0xdd, 0x32, 0x41, 0xdd, 0xea, 0x72, 0x23, 0x8a, 0xc0, 0x30, 0x7c, 0x14, 0x88, 0xa1, 0x12, 0xe0, 0x45, 0x6b, 0x42, 0x5a, 0xc4, 0xbb, 0x2d, 0x56, 0xa8, 0xec, 0xf5, 0xbe, 0x5e, 0x2d, 0xab, 0x5d, 0x88, 0x6a, 0x09, 0x35, 0xdb, 0xf4, 0x77, 0x2e, 0x60, 0xbb, 0x76, 0xce, 0xd2, 0xe8, 0xf0, 0x40, 0x33, 0x01, 0x8a, 0xe9, 0x08, 0xf6, 0x30, 0x4a, 0x7a, 0xdb, 0xc0, 0x7b, 0x96, 0x56, 0xbf, 0x81, 0xa8, 0x42, 0xe7, 0xb0, 0x07, 0xa2, 0x66, 0xd7, 0xea, 0x04, 0x18, 0xd1, 0x47, 0x1b, 0xcb, 0x43, 0x44, 0xbd, 0x03, 0xa9, 0x95, 0x68, 0xf9, 0x8e, 0xf1, 0x41, 0x03, 0x34, 0x6b, 0xd7, 0x65, 0xef, 0x38, 0xa5, 0xa8, 0xef, 0x10, 0xd5, 0xcb, 0xe6, 0x47, 0x8b, 0x4a, 0xba, 0x38, 0xc6, 0xab, 0x89, 0x94, 0xcb, 0x31, 0xf8, 0xbe, 0x91, 0xa1, 0x11, 0xe4, 0x0d, 0xb7, 0x03, 0xc7, 0x81, 0x0f, 0xd0, 0x5f, 0x46, 0xf6, 0x3c, 0xa7, 0x2a, 0x38, 0x5f, 0x46, 0x18, 0x1f, 0x8b, 0x13, 0x0b, 0xca, 0xf4, 0xc8, 0xb4, 0x5f, 0x3d, 0xb9, 0x3c, 0x58, 0x91, 0xd9, 0x9c, 0x4b, 0x3c, 0x43, 0xc1, 0xd2, 0x90, 0x58, 0xce, 0xb0, 0x19, 0x3b, 0xfc, 0xdd, 0xaf, 0xd6, 0x5a, 0xca, 0x96, 0x8b, 0x4e, 0xfe, 0x5f, 0x89, 0x04, 0xe2, 0x9c, 0x1d, 0xed, 0xb9, 0x92, 0x10, 0x20, 0xda, 0x1e, 0xdd, 0xff, 0xca, 0xe3, 0xdc, 0x62, 0x3c, 0x51, 0x8a, 0xa5, 0x28, 0x71, 0x33, 0x17, 0xda, 0x38, 0xbb, 0xaf, 0x61, 0x81, 0xf1, 0xf9, 0xe0, 0x4a, 0xe9, 0x4c, 0x39, 0x45, 0x1f, 0xc4, 0x37, 0xb9, 0x6e, 0x62, 0x41, 0x65, 0xf6, 0xd7, 0x6f, 0x2a, 0xc1, 0x37, 0xa0, 0x38, 0x15, 0x00, 0x20, 0x59, 0x28, 0x8e, 0xec, 0xf2, 0x6d, 0xe7, 0x90, 0xeb, 0xb7, 0xd4, 0x0a, 0xd9, 0xe4, 0x02, 0xa4, 0xcc, 0x95, 0x1b, 0x41, 0x94, 0x7d, 0x54, 0x77, 0xb3, 0x0d, 0xc6, 0x44, 0x53, 0xf9, 0x48, 0x99, 0x13, 0x7f, 0xab, 0xf0, 0xa7, 0x73, 0xe5, 0xf6, 0x1c, 0xe6, 0xd5, 0x2d, 0x65, 0xa0, 0xd4, 0x51, 0x02, 0xbf, 0xa8, 0x7f, 0xc2, 0x74, 0x37, 0x30, 0xd2, 0xec, 0x1b, 0x73, 0xd4, 0xe0, 0x68, 0xb7, 0x54, 0x01, 0x55, 0x04, 0x77, 0xb2, 0x11, 0x3d, 0x45, 0x41, 0x21, 0x0f, 0x15, 0x90, 0x7d, 0x8d, 0x88, 0x55, 0xed, 0xd7, 0xee, 0xbf, 0xc8, 0xf1, 0x99, 0x85, 0x22, 0x83, 0x8a, 0x43, 0xea, 0x1a, 0x41, 0x88, 0xcd, 0x89, 0x63, 0x61, 0x9e, 0x12, 0x53, 0x61, 0xa0, 0x2a, 0x94, 0x43, 0xd8, 0x3c, 0xb5, 0xf8, 0x1b, 0xa0, 0x06, 0x01, 0xf9, 0x19, 0x43, 0xcf, 0x94, 0x3e, 0x18, 0x0a, 0x87, 0xe6, 0x54, 0xcd, 0x9e, 0xaf, 0xe1, 0x8e, 0xd4, 0x38, 0xda, 0x6c, 0x0a, 0xbc, 0xb0, 0x84, 0x17, 0x74, 0xaa, 0x42, 0x19, 0xa6, 0x0a, 0xfe, 0x37, 0xe5, 0xde, 0x04, 0xfa, 0x51, 0xe1, 0xad, 0x57, 0xda, 0x36, 0x9f, 0xdd, 0x11, 0x70, 0xbc, 0xd3, 0x89, 0xd5, 0x46, 0x1d, 0x8f, 0x1e, 0x7a, 0xd2, 0x7d, 0x2f, 0x2b, 0x1b, 0xff, 0xcc, 0x32, 0xb0, 0x54, 0x6d, 0x08, 0x34, 0x18, 0x9e, 0xcd, 0x51, 0x46, 0xf3, 0xb7, 0xe6, 0x9a, 0x11, 0x5a, 0x5d, 0xc8, 0xa8, 0x9e, 0x02, 0xd5, 0xb0, 0x0a, 0xad, 0x22, 0x7f, 0x8a, 0xe4, 0x5e, 0x9f, 0x1a, 0xf3, 0xe2, 0xe8, 0x58, 0xdb, 0x11, 0xe0, 0xa9, 0x26, 0xc5, 0x3e, 0xf7, 0xbe, 0xab, 0xe8, 0x36, 0x79, 0xfc, 0x0c, 0xe6, 0x60, 0xbe, 0xae, 0xad, 0x59, 0xb5, 0xe6, 0x7d, 0x10, 0xc7, 0xe3, 0x42, 0x1c, 0x93, 0x51, 0xe5, 0x5e, 0x9a, 0x7c, 0x14, 0x4b, 0x34, 0x2e, 0x0e, 0xd0, 0x39, 0xf3, 0xcf, 0x26, 0xc8, 0xeb, 0x91, 0x5a, 0xd2, 0x9b, 0x4d, 0xc3, 0xdc, 0x2b, 0x94, 0xef, 0x64, 0xd6, 0x7a, 0x5d, 0x0b, 0x5c, 0x4b, 0x77, 0x12, 0x73, 0x8f, 0x42, 0x0c, 0xdd, 0x50, 0x7a, 0x24, 0x39, 0xaa, 0xfc, 0x06, 0x46, 0xce, 0x4f, 0x15, 0x74, 0xc0, 0xb8, 0x0e, 0x9d, 0x43, 0x9a, 0xa7, 0xc9, 0x4c, 0x5a, 0x08, 0xc9, 0xf2, 0x49, 0xdf, 0x2b, 0xa2, 0x6e, 0x57, 0xd6, 0xcc, 0x5b, 0x25, 0xf4, 0x68, 0x30, 0xcc, 0xb8, 0x1d, 0x64, 0x35, 0xd5, 0x08, 0x31, 0x3b, 0x87, 0x38, 0x30, 0xd1, 0x10, 0xda, 0x12, 0xae, 0x4c, 0x9d, 0x8e, 0x16, 0x4a, 0xf8, 0x0f, 0x55, 0x34, 0x61, 0x5a, 0x81, 0xd7, 0xda, 0x4e, 0xe4, 0x5f, 0xad, 0xa2, 0xe5, 0xb7, 0x9f, 0x68, 0x3e, 0xe9, 0x70, 0xac, 0x1d, 0xbd, 0x43, 0x59, 0x43, 0x9f, 0x49, 0xfe, 0x61, 0xcf, 0x45, 0x32, 0x6c, 0xde, 0xf6, 0x6d, 0x24, 0x90, 0x62, 0xcb, 0xac, 0x2f, 0xdf, 0x6e, 0xc2, 0x3a, 0x16, 0xdd, 0x5f, 0x85, 0x63, 0x0f, 0xd0, 0x60, 0x43, 0x96, 0x27, 0xc1, 0x6b, 0x25, 0x97, 0xc7, 0xc0, 0xe1, 0xa4, 0xbd, 0xde, 0x9d, 0x91, 0x96, 0x5c, 0xa6, 0x54, 0xca, 0x67, 0xc8, 0x20, 0x9f, 0xed, 0x9e, 0xaf, 0xe5, 0x60, 0x33, 0xed, 0x64, 0xdb, 0x0f, 0x00, 0x9b, 0xb2, 0x91, 0x62, 0xa1, 0xf4, 0x6a, 0x79, 0xdf, 0xf0, 0x51, 0x92, 0x9f, 0xe4, 0x18, 0x29, 0x3a, 0xc5, 0x65, 0xc0, 0x48, 0x4e, 0x48, 0xb6, 0xe3, 0xdc, 0x1d, 0xd3, 0x36, 0x4d, 0xd5, 0x05, 0xba, 0xaa, 0xe7, 0xce, 0x03, 0xc3, 0xde, 0x1d, 0x20, 0x40, 0x10, 0x4b, 0x6d, 0x09, 0x21, 0x12, 0xb1, 0xb7, 0xdb, 0xb1, 0xec, 0x9a, 0xb2, 0xda, 0x37, 0x4c, 0xab, 0x2e, 0xfb, 0xbb, 0x09, 0x37, 0xd5, 0xd5, 0xed, 0xa7, 0x07, 0x5b, 0x2c, 0xf4, 0xe9, 0xf8, 0xf4, 0x08, 0x50, 0x22, 0xb2, 0xb9, 0x34, 0x38, 0x22, 0xf5, 0xc7, 0xe0, 0xca, 0x00, 0xbb, 0x4f, 0xfb, 0xa4, 0x36, 0x8d, 0xf0, 0x6e, 0x81, 0x34, 0xd9, 0xa7, 0x2b, 0x47, 0xc7, 0x2b, 0xdd, 0xac, 0x3a, 0xb5, 0xbd, 0xe6, 0x50, 0x47, 0x4a, 0x12, 0xbc, 0xf6, 0x3e, 0x0b, 0xfe, 0xd8, 0x42, 0x14, 0xd5, 0x24, 0x3c, 0x24, 0x31, 0xd5, 0xdd, 0x2e, 0xad, 0xf1, 0x8e, 0xdd, 0x32, 0x4c, 0x23, 0xdf, 0xac, 0x4f, 0x35, 0xbb, 0xd7, 0xf0, 0xb7, 0x42, 0x21, 0x27, 0x50, 0x2b, 0x69, 0xfc, 0x3c, 0x43, 0xb0, 0x4b, 0x5f, 0xc6, 0x66, 0x06, 0xeb, 0x19, 0x26, 0x5d, 0xd6, 0xf9, 0xf5, 0x3e, 0xf3, 0xd9, 0x0c, 0x28, 0x32, 0xb8, 0x3c, 0xb3, 0xdc, 0x64, 0x44, 0x34, 0xec, 0x2c, 0x43, 0x1e, 0x5f, 0xaa, 0x2e, 0x3e, 0x15, 0xb3, 0xa0, 0x76, 0xa6, 0x05, 0x8c, 0xdb, 0xc9, 0x31, 0xa1, 0x4c, 0xfe, 0x6e, 0x85, 0xf5, 0xe2, 0xef, 0x24, 0xaa, 0x27, 0x0e, 0x27, 0x19, 0xc3, 0xba, 0x2c, 0x75, 0xe8, 0x8c, 0xc1, 0x5d, 0xb5, 0x89, 0xb7, 0x08, 0x39, 0xb7, 0xb0, 0x81, 0x53, 0xbb, 0x06, 0x9c, 0xc6, 0x4c, 0x16, 0x24, 0xbc, 0xb6, 0x67, 0x19, 0x56, 0x76, 0x42, 0x8a, 0xa6, 0x23, 0x84, 0x33, 0x3b, 0xb8, 0x32, 0x24, 0x94, 0x4f, 0x40, 0xae, 0x2b, 0x8e, 0xe6, 0x01, 0x6e, 0x73, 0xe3, 0x83, 0x95, 0x08, 0x32, 0x4c, 0xe8, 0x84, 0x30, 0x0e, 0xa3, 0xf8, 0x84, 0x84, 0x48, 0xdc, 0x9e, 0xd1, 0x19, 0xb0, 0xa9, 0xfe, 0x9e, 0xbe, 0x81, 0xc2, 0x08, 0x36, 0xbe, 0xe7, 0xda, 0x86, 0xef, 0x07, 0x3b, 0x0b, 0xd0, 0x51, 0x25, 0x67, 0x2d, 0xc7, 0xe0, 0x63, 0xe3, 0x00, 0x82, 0xb1, 0x0a, 0xe8, 0xc1, 0x1c, 0xac, 0xa1, 0xdb, 0x5c, 0xc2, 0x4c, 0x06, 0xfa, 0xda, 0x99, 0x0d, 0x66, 0x1f, 0x2a, 0x13, 0xf0, 0xc0, 0x0c, 0xed, 0xc3, 0x84, 0x6a, 0x17, 0x02, 0x81, 0x8e, 0x3f, 0xa8, 0xeb, 0x4e, 0xc0, 0x59, 0xf6, 0x36, 0xf2, 0xaf, 0xf7, 0x5f, 0xa6, 0x1b, 0x5f, 0x4f, 0xa3, 0x4f, 0x09, 0x63, 0xbc, 0xf1, 0x11, 0xb0, 0x87, 0xaf, 0xe5, 0xd5, 0x25, 0x3a, 0x13, 0x0d, 0x89, 0xdd, 0x22, 0xbe, 0x3c, 0x51, 0xea, 0x04, 0xcc, 0x97, 0x37, 0x43, 0x95, 0x81, 0x59, 0xbd, 0xb8, 0x15, 0x84, 0xc3, 0x0d, 0xe4, 0xc1, 0x2d, 0x2d, 0xf4, 0xc9, 0x4d, 0x08, 0xec, 0x3d, 0x55, 0x00, 0x1d, 0xb6, 0xd0, 0x0e, 0x5e, 0x86, 0x30, 0x6a, 0x3e, 0x42, 0xe6, 0x02, 0x3a, 0x1b, 0x91, 0xc6, 0x5b, 0x3a, 0xca, 0xa8, 0x04, 0xb2, 0x03, 0xce, 0x50, 0x65, 0xfe, 0x40, 0x69, 0x20, 0xe6, 0x43, 0xfb, 0xfd, 0x3d, 0xf5, 0xf2, 0x35, 0x65, 0x3f, 0x69, 0x10, 0x1c, 0x9f, 0x9a, 0x47, 0x3b, 0xfe, 0xe4, 0xca, 0xb9, 0x01, 0x8a, 0xbf, 0xb8, 0xd3, 0x58, 0xcc, 0x2c, 0x29, 0x19, 0x9e, 0xcc, 0x30, 0x8a, 0x47, 0x56, 0xf4, 0xda, 0xd2, 0x20, 0x19, 0xe5, 0xf7, 0xbf, 0x94, 0xc1, 0xcf, 0x63, 0x21, 0x27, 0xbf, 0x99, 0xc8, 0xa4, 0xc2, 0xfe, 0xae, 0xbc, 0x6e, 0x4d, 0x16, 0x5d, 0x34, 0xac, 0x18, 0xca, 0x62, 0x2f, 0x96, 0x9b, 0xe3, 0x7f, 0x3d, 0xec, 0xf4, 0xb1, 0xe3, 0xad, 0x28, 0xcc, 0xad, 0xae, 0x97, 0xcb, 0xa9, 0x5d, 0xc2, 0xc4, 0x8b, 0x3d, 0x51, 0xe9, 0x93, 0x70, 0xf4, 0xd0, 0x07, 0xaa, 0xcf, 0xeb, 0x5f, 0xa4, 0x5e, 0x86, 0xe1, 0x3c, 0x69, 0xd4, 0x78, 0x4b, 0x36, 0xa3, 0x56, 0x89, 0x0d, 0xfc, 0x33, 0x9a, 0x47, 0xa4, 0x1a, 0xcb, 0xcb, 0x26, 0x07, 0x46, 0x03, 0x60, 0x09, 0x99, 0x5b, 0x95, 0xa2, 0xea, 0xdb, 0xe0, 0xbb, 0x90, 0x06, 0x23, 0xa8, 0xe1, 0x1d, 0x29, 0xb6, 0x4c, 0x74, 0xb1, 0x77, 0xbf, 0x8a, 0xf3, 0x48, 0x85, 0xc8, 0x83, 0xfc, 0x75, 0xa4, 0x0b, 0x0f, 0xee, 0x89, 0x1a, 0x49, 0xfd, 0x7a, 0x27, 0x3b, 0x47, 0xd2, 0x69, 0xf2, 0x01, 0xad, 0xd8, 0x82, 0x99, 0xed, 0x17, 0xc6, 0x76, 0x13, 0x17, 0x29, 0x88, 0xc3, 0x3c, 0xa3, 0xeb, 0x00, 0x1a, 0xf4, 0xcf, 0x62, 0x28, 0x9b, 0x2f, 0x71, 0x7a, 0x07, 0x1e, 0x5d, 0x9c, 0xa1, 0x67, 0x5e, 0x68, 0x1e, 0x61, 0x70, 0x13, 0x41, 0x41, 0xfe, 0xca, 0xf9, 0xee, 0xfb, 0x19, 0xf2, 0x0e, 0x79, 0x77, 0x61, 0x0e, 0xe7, 0x58, 0xb7, 0x5d, 0xd9, 0x75, 0xa7, 0xb6, 0x9f, 0x89, 0x6e, 0x38, 0xfe, 0x5b, 0x8d, 0x03, 0x86, 0x95, 0x39, 0x0e, 0xfc, 0x78, 0x6e, 0x0d, 0x91, 0x40, 0x20, 0x21, 0xcc, 0xb5, 0x82, 0xe6, 0xa7, 0x59, 0x51, 0x5a, 0xe0, 0x79, 0x96, 0xfd, 0x10, 0xb6, 0x8a, 0xe0, 0x87, 0xcb, 0x89, 0x96, 0xb0, 0xb5, 0xf8, 0x2b, 0x24, 0x26, 0xea, 0x41, 0x81, 0x1d, 0xfc, 0x15, 0x98, 0x39, 0xca, 0x86, 0xbd, 0x70, 0x33, 0x71, 0xb3, 0xc3, 0x70, 0x0f, 0xf2, 0xdc, 0x31, 0x95, 0x93, 0xd0, 0x9e, 0x28, 0x85, 0x35, 0xd4, 0xf1, 0x78, 0xfe, 0x8c, 0x96, 0x0a, 0xea, 0xb3, 0x0b, 0xdb, 0xb7, 0x18, 0x06, 0x0c, 0x92, 0xa9, 0xed, 0x83, 0x41, 0x58, 0x9c, 0x0c, 0xa4, 0xac, 0xaa, 0x99, 0xaa, 0x7d, 0xcf, 0xbd, 0xf2, 0x3c, 0xef, 0x22, 0xd3, 0xea, 0x18, 0x89, 0x9f, 0x29, 0xec, 0xa6, 0xc3, 0x88, 0x8f, 0x0c, 0x6e, 0x0e, 0x81, 0x8a, 0x23, 0x73, 0xe6, 0xdb, 0x26, 0x5a, 0x36, 0xa5, 0x03, 0xa9, 0x1d, 0x2d, 0xc9, 0x8d, 0xba, 0x46, 0xdb, 0xf0, 0x30, 0xd7, 0x4e, 0x34, 0x29, 0x18, 0xf9, 0x3c, 0x9c, 0x14, 0x69, 0x11, 0xb0, 0x22, 0xd6, 0xf9, 0xd2, 0xd1, 0xa9, 0x63, 0x8d, 0xe8, 0x22, 0x14, 0x66, 0x11, 0xa6, 0xd5, 0x2b, 0xcb, 0x2a, 0xde, 0xba, 0xa9, 0xae, 0x0e, 0xe5, 0x3c, 0x31, 0x6e, 0x02, 0x0f, 0xd3, 0xef, 0xd4, 0x14, 0x22, 0xc8, 0x61, 0xc0, 0xd2, 0x57, 0x22, 0x6c, 0x20, 0x6a, 0xa0, 0xa2, 0x8c, 0x47, 0xea, 0x4d, 0x1a, 0x28, 0x88, 0xc1, 0xda, 0xa7, 0x9e, 0x3c, 0xd6, 0x66, 0xd1, 0x4e, 0x8b, 0xc3, 0x93, 0x26, 0xee, 0xc6, 0x57, 0xa3, 0xcc, 0xdd, 0xfa, 0x67, 0x15, 0x5a, 0xef, 0xbc, 0x16, 0xde, 0x12, 0xf1, 0xdc, 0x0c, 0xb9, 0x22, 0x25, 0x91, 0x06, 0x03, 0x88, 0x38, 0xe7, 0x26, 0x37, 0x43, 0x00, 0x25, 0xa4, 0xd9, 0xf7, 0x74, 0x0a, 0x91, 0x04, 0x56, 0x6a, 0x6f, 0x30, 0x46, 0x60, 0xfe, 0xb2, 0x1c, 0x10, 0x74, 0x8e, 0x60, 0x90, 0xaa, 0x69, 0x6b, 0x9e, 0x31, 0x91, 0x04, 0xdf, 0xe4, 0xd0, 0x26, 0x43, 0x16, 0xd0, 0x5c, 0x3d, 0x3e, 0x62, 0x91, 0x39, 0x99, 0x92, 0x51, 0x5f, 0x95, 0xf7, 0xeb, 0xf6, 0x31, 0xa2, 0xe1, 0x5d, 0x60, 0xac, 0x28, 0x29, 0xfb, 0x33, 0xfd, 0x60, 0x1a, 0x0e, 0x03, 0x00, 0x74, 0xd7, 0xa3, 0xad, 0xe8, 0x2a, 0x4b, 0x3e, 0xad, 0xeb, 0x53, 0x44, 0xa1, 0xe6, 0x1c, 0xaa, 0x4b, 0x96, 0x22, 0x66, 0x68, 0xea, 0xcc, 0x91, 0xd7, 0x35, 0x01, 0xab, 0xf9, 0xa2, 0xad, 0x20, 0xe5, 0xcf, 0x44, 0x11, 0x62, 0x91, 0x9d, 0x44, 0xda, 0x57, 0x7f, 0x26, 0x93, 0x70, 0x86, 0x92, 0x0b, 0x63, 0xf4, 0x32, 0xcd, 0x48, 0x4c, 0x1e, 0x4e, 0xad, 0x3b, 0x25, 0xa6, 0x20, 0x0f, 0xe7, 0x35, 0xfe, 0x4b, 0x20, 0x57, 0x0a, 0xe6, 0xad, 0xcd, 0xef, 0xdd, 0x89, 0x64, 0x28, 0xcb, 0xda, 0x24, 0x3b, 0x97, 0x38, 0xe9, 0xae, 0x5e, 0x99, 0x48, 0x31, 0x81, 0x02, 0x6c, 0xb0, 0x14, 0xd1, 0xfc, 0x31, 0x27, 0xf9, 0x8b, 0xc1, 0x47, 0x61, 0x54, 0x06, 0xcc, 0x2c, 0xeb, 0x96, 0xeb, 0xa9, 0x19, 0x62, 0xd4, 0x03, 0xff, 0x48, 0x94, 0x10, 0x03, 0xbe, 0x84, 0xe5, 0xf6, 0x2b, 0x2d, 0x6f, 0xbe, 0xb3, 0x2a, 0xa2, 0x64, 0x82, 0x83, 0x3f, 0xc1, 0xb0, 0x8f, 0x99, 0xab, 0xfd, 0x0e, 0xe8, 0xcb, 0x91, 0x3b, 0xfa, 0x55, 0xe9, 0x39, 0x65, 0xad, 0x06, 0x62, 0xcc, 0xaa, 0xd5, 0xbb, 0xf1, 0x63, 0x5b, 0x0c, 0xd2, 0xc2, 0x17, 0x3f, 0xed, 0x4f, 0xd5, 0x6b, 0x68, 0xa4, 0xaf, 0x14, 0x67, 0xc6, 0xc5, 0x87, 0xd8, 0xc7, 0xc1, 0x75, 0xcb, 0x8f, 0x09, 0x16, 0xb9, 0xaa, 0x3c, 0x02, 0x3f, 0x2c, 0xdf, 0x1f, 0x1d, 0xd0, 0x2b, 0xc3, 0x1b, 0x34, 0x91, 0xea, 0xda, 0x21, 0xc2, 0x47, 0xab, 0x48, 0xf7, 0xbd, 0x86, 0xff, 0x57, 0x69, 0x18, 0xd1, 0x99, 0xd2, 0x39, 0xdb, 0xd0, 0x0e, 0x0c, 0x48, 0xd2, 0xde, 0x5e, 0xe2, 0x0f, 0x87, 0xc5, 0xee, 0x8f, 0x63, 0x2e, 0x10, 0xdb, 0xba, 0x90, 0xfb, 0x6a, 0x85, 0x98, 0xc5, 0xd2, 0x71, 0x7d, 0xa6, 0x7a, 0x2f, 0x5a, 0xb9, 0xb6, 0x63, 0x59, 0xde, 0x4e, 0x8d, 0xee, 0x29, 0xd3, 0x65, 0x02, 0x41, 0x4e, 0x42, 0xda, 0x31, 0x11, 0xbb, 0xe8, 0xd2, 0x50, 0x51, 0x98, 0x19, 0x0e, 0x60, 0x47, 0x64, 0x37, 0x4a, 0xc4, 0xbb, 0x13, 0x44, 0x82, 0x15, 0xcb, 0xb2, 0x5c, 0x0b, 0x9b, 0x06, 0x8d, 0x8d, 0xd9, 0xc2, 0xa9, 0x26, 0x95, 0xc1, 0x25, 0x6a, 0x4b, 0x23, 0xf2, 0xb9, 0x0e, 0x5f, 0x96, 0x33, 0x33, 0x7f, 0x4e, 0x6a, 0x9f, 0xef, 0xa7, 0x6e, 0x2e, 0xde, 0x5e, 0x70, 0x81, 0x9c, 0xd6, 0x01, 0x77, 0x88, 0x16, 0x88, 0xc9, 0xb8, 0x35, 0xa2, 0xd5, 0xb5, 0xff, 0xa1, 0xa5, 0xd4, 0xd9, 0x04, 0x19, 0x65, 0x66, 0xd0, 0x6d, 0xfd, 0x3f, 0x6c, 0x04, 0x9d, 0xd3, 0xfe, 0xd8, 0xa7, 0x8e, 0x0e, 0x91, 0x74, 0xc4, 0xe8, 0x1e, 0x12, 0x9e, 0x59, 0xfa, 0x7e, 0xeb, 0x6c, 0x2b, 0xdf, 0x0b, 0x1b, 0x9e, 0xa1, 0x33, 0x01, 0x47, 0x0a, 0x00, 0x77, 0x18, 0xc1, 0x28, 0xde, 0x73, 0x68, 0x2b, 0x3f, 0x2a, 0xb3, 0x9b, 0xaf, 0x10, 0xda, 0xd2, 0x3a, 0xf8, 0x44, 0xb9, 0x9c, 0xbb, 0x39, 0x85, 0x46, 0x35, 0x9b, 0xb8, 0xba, 0x07, 0xc8, 0x54, 0x16, 0xdb, 0x4d, 0xd0, 0xd8, 0xd5, 0x99, 0xfa, 0x70, 0xc7, 0x5c, 0xa6, 0x12, 0x35, 0x0f, 0xcf, 0x9f, 0xec, 0xef, 0xb3, 0x67, 0x6b, 0x6e, 0xf7, 0x1c, 0xe4, 0xac, 0x6b, 0xff, 0x23, 0x19, 0xb0, 0x52, 0x2b, 0xc4, 0xce, 0xb9, 0xd1, 0x22, 0x6e, 0x0e, 0x9c, 0x46, 0xfc, 0x19, 0x19, 0x72, 0x93, 0xc9, 0x44, 0x90, 0x9f, 0xe9, 0x30, 0x14, 0xc2, 0x27, 0x94, 0x33, 0x23, 0x50, 0x97, 0xd3, 0x65, 0xda, 0xca, 0xe4, 0xf9, 0xfa, 0x99, 0xe4, 0x11, 0x95, 0x54, 0xd4, 0x65, 0x03, 0x3a, 0x4e, 0xe4, 0x35, 0x5c, 0x4a, 0x5d, 0x9d, 0x96, 0x35, 0xba, 0x48, 0x68, 0x6a, 0x41, 0x14, 0x81, 0xd1, 0x69, 0x82, 0xd9, 0xb2, 0x09, 0x99, 0x09, 0x87, 0x34, 0x47, 0x66, 0x0b, 0xad, 0x86, 0x35, 0x57, 0x8c, 0x96, 0xf2, 0xc2, 0x1f, 0x3b, 0x5a, 0xa9, 0x08, 0x39, 0x20, 0x37, 0x31, 0xfe, 0xbc, 0x3b, 0xf7, 0xb2, 0xf9, 0x3d, 0xc0, 0x44, 0xf5, 0x5e, 0x0a, 0x28, 0x64, 0xf7, 0x44, 0x2c, 0xac, 0x05, 0x47, 0x4d, 0xbe, 0xec, 0xcd, 0xc6, 0x16, 0x1d, 0xee, 0x39, 0xdb, 0x1a, 0xee, 0x16, 0xf7, 0x3b, 0x2c, 0x09, 0xdf, 0xc8, 0xd3, 0x0c, 0xc1, 0x9c, 0x1e, 0xcf, 0x4b, 0xe2, 0xba, 0x9f, 0xb5, 0x1e, 0x57, 0x4b, 0x11, 0xd4, 0xe5, 0x15, 0xea, 0x04, 0xe7, 0x15, 0x21, 0xf1, 0xfe, 0xc8, 0x9b, 0xf1, 0xe3, 0xa7, 0x0e, 0xd8, 0xbc, 0xa2, 0xce, 0x26, 0x52, 0x21, 0xe6, 0x93, 0x3a, 0xe6, 0xf0, 0x6b, 0x47, 0x93, 0xad, 0x69, 0x36, 0x6f, 0xd1, 0xec, 0x2e, 0x11, 0x64, 0xd8, 0x5e, 0xca, 0x91, 0x07, 0xc5, 0x3a, 0x53, 0x81, 0x55, 0x47, 0x10, 0xfc, 0x02, 0x38, 0x35, 0xdb, 0xd2, 0xb3, 0xd6, 0x3a, 0xc4, 0x3f, 0xd5, 0xf5, 0x26, 0x42, 0xae, 0xe8, 0x01, 0x39, 0xb4, 0xab, 0xb9, 0x4e, 0x28, 0x09, 0x2c, 0xef, 0xdb, 0xf4, 0xfc, 0xc9, 0x6b, 0x03, 0x1c, 0xda, 0x35, 0x1a, 0xb0, 0xb3, 0x11, 0x1c, 0x02, 0x17, 0x17, 0x9f, 0xe0, 0x48, 0x04, 0x59, 0x08, 0x9b, 0xc7, 0x4a, 0x32, 0x50, 0xe6, 0x58, 0x12, 0x1d, 0xb9, 0x81, 0xb0, 0x49, 0xf6, 0x98, 0xc1, 0x58, 0xfb, 0xbb, 0xb8, 0x1f, 0xb6, 0x2d, 0xaf, 0x10, 0x62, 0xef, 0x04, 0x4a, 0x5b, 0xbc, 0x83, 0xd7, 0x44, 0xec, 0xdf, 0x5b, 0x39, 0x22, 0xe1, 0xcf, 0x1f, 0x62, 0xa1, 0x47, 0x1e, 0xd2, 0x03, 0xeb, 0xc1, 0x16, 0x13, 0xa3, 0x45, 0x50, 0xb2, 0xb8, 0xe6, 0x68, 0x69, 0x04, 0x4d, 0xc6, 0xd5, 0xa8, 0x20, 0x01, 0xea, 0x9a, 0x1a, 0x0a, 0x29, 0x12, 0x56, 0x0a, 0xe6, 0xcd, 0xe1, 0x9e, 0x1e, 0x5b, 0x14, 0xa1, 0x4e, 0xf5, 0xdf, 0x51, 0x8b, 0xc6, 0x98, 0x38, 0x90, 0x54, 0x21, 0x45, 0x36, 0x29, 0xda, 0x4c, 0x61, 0x3e, 0xa1, 0x2f, 0xd4, 0x43, 0xe5, 0x04, 0x11, 0x34, 0xf2, 0xae, 0x01, 0xdb, 0x3b, 0xe8, 0x2d, 0xf9, 0xab, 0x17, 0x96, 0x34, 0xb9, 0xbb, 0x2b, 0x26, 0xa7, 0x46, 0x04, 0x8f, 0xc6, 0x40, 0xba, 0x2e, 0xad, 0xdc, 0x12, 0x07, 0x19, 0x48, 0xb1, 0x43, 0xee, 0x3e, 0x85, 0x26, 0xa6, 0xf5, 0x38, 0xe3, 0x95, 0xfa, 0xfa, 0xf0, 0xc7, 0xf9, 0x7a, 0x05, 0x0e, 0x61, 0xd5, 0xf9, 0x96, 0xff, 0xa1, 0xfe, 0xac, 0xf7, 0xf5, 0x90, 0x8f, 0xb8, 0x29, 0xb5, 0x2a, 0x55, 0x9e, 0x60, 0xb8, 0x6e, 0x0f, 0x0b, 0x8c, 0xec, 0x1b, 0x2a, 0x64, 0x51, 0x06, 0x51, 0xac, 0x3c, 0x92, 0x99, 0xf3, 0x02, 0x38, 0x6f, 0xd6, 0x0b, 0x98, 0xfc, 0x4c, 0xfb, 0x35, 0x3f, 0x50, 0xa0, 0x0a, 0x6a, 0x33, 0xfa, 0x5f, 0x99, 0x2d, 0xc3, 0xd7, 0x76, 0x24, 0x66, 0x00, 0xf1, 0x02, 0x1f, 0xeb, 0x84, 0xb1, 0x71, 0xe5, 0x82, 0x99, 0xbe, 0xa9, 0xaf, 0x00, 0x6d, 0x25, 0x76, 0x85, 0xcc, 0xf7, 0x98, 0xaa, 0x72, 0x11, 0x5d, 0xc2, 0x76, 0x5a, 0x7d, 0xf0, 0xc5, 0x7f, 0x98, 0xcf, 0x20, 0x97, 0x83, 0xe9, 0x14, 0x11, 0x1f, 0xe1, 0x8a, 0x79, 0xc7, 0x35, 0x74, 0xa4, 0xac, 0x6e, 0x34, 0xc9, 0xfe, 0x93, 0x3e, 0x2d, 0xde, 0x8e, 0xc2, 0x90, 0xa2, 0x5c, 0x42, 0xd7, 0x9d, 0xbf, 0x13, 0x1a, 0x39, 0xe1, 0x46, 0xb7, 0xdb, 0xff, 0x26, 0x26, 0x43, 0x8c, 0xc6, 0x23, 0x70, 0xb6, 0x6e, 0xf2, 0xf4, 0xad, 0xb0, 0xcd, 0x91, 0xb1, 0x6f, 0x38, 0x67, 0x28, 0x4d, 0x04, 0xa9, 0xdc, 0x45, 0x52, 0x29, 0x97, 0x51, 0x92, 0xe1, 0x28, 0x59, 0x17, 0xa5, 0x6a, 0xc5, 0x8f, 0x56, 0x64, 0x66, 0xbc, 0xf1, 0x8a, 0x51, 0x16, 0x70, 0x21, 0x2a, 0x2a, 0xfb, 0x6a, 0x64, 0x08, 0xeb, 0x32, 0xe3, 0x3d, 0xbf, 0x0c, 0x8c, 0xb2, 0xbb, 0x27, 0x0d, 0xea, 0x92, 0xb3, 0x12, 0x36, 0xe1, 0x81, 0x48, 0x85, 0xa0, 0x96, 0x2f, 0xf5, 0xd2, 0xb2, 0x2d, 0xe0, 0x83, 0x62, 0xe0, 0x29, 0xfb, 0x4a, 0xeb, 0x0f, 0xc7, 0xd3, 0xf9, 0x6a, 0x2d, 0xa7, 0xeb, 0xe3, 0x0c, 0x57, 0x83, 0xf1, 0xff, 0xe2, 0x38, 0xfe, 0x9b, 0xf6, 0x9f, 0x2c, 0xe3, 0x60, 0xd4, 0xd4, 0x65, 0xeb, 0xfe, 0xac, 0xa8, 0x85, 0x57, 0xf7, 0x99, 0xd1, 0xc9, 0x31, 0x01, 0xf3, 0xd8, 0xef, 0xd8, 0x9a, 0x25, 0x23, 0xcd, 0x06, 0x5f, 0x5e, 0x5b, 0x92, 0xdc, 0xb1, 0xfd, 0xbe, 0x02, 0x50, 0xf1, 0x9f, 0x49, 0xae, 0xb5, 0xa4, 0x04, 0x0b, 0x50, 0xd2, 0x05, 0x48, 0xe0, 0x67, 0xa2, 0xe4, 0xda, 0xd0, 0x9b, 0xa4, 0xad, 0x3a, 0x43, 0x12, 0xd3, 0xb8, 0x89, 0x04, 0x34, 0xb5, 0xc9, 0xd3, 0x16, 0xf8, 0x83, 0x54, 0xb3, 0x8d, 0xd0, 0xf5, 0xb9, 0x41, 0xe2, 0x09, 0x67, 0x69, 0xce, 0x88, 0x42, 0x6a, 0x5e, 0x23, 0xc3, 0xdc, 0xb6, 0xed, 0xbb, 0xf3, 0x1e, 0xc0, 0x36, 0x9a, 0xf2, 0x47, 0x37, 0x20, 0x68, 0x48, 0x21, 0x21, 0xa0, 0x29, 0xf2, 0x97, 0x3b, 0xc2, 0x8e, 0xcd, 0x3a, 0x28, 0xf3, 0x99, 0xe8, 0x60, 0x08, 0x4d, 0x28, 0xaf, 0x93, 0x24, 0x9e, 0xe0, 0xc6, 0xec, 0x8f, 0x63, 0xeb, 0x46, 0x4c, 0x33, 0xec, 0xee, 0x92, 0xe8, 0x36, 0x44, 0x2b, 0xf4, 0x24, 0xef, 0xf6, 0x81, 0xfe, 0x6d, 0x57, 0xfd, 0x9f, 0x00, 0x60, 0xad, 0x90, 0x2d, 0x24, 0xfb, 0xa1, 0xa1, 0x22, 0x3e, 0x18, 0x55, 0x10, 0x8c, 0xdd, 0x2c, 0x29, 0xd2, 0x87, 0xbc, 0xa4, 0x00, 0x67, 0xcd, 0xfb, 0x12, 0x10, 0x40, 0x6a, 0xa0, 0xd9, 0x63, 0x66, 0xc8, 0x44, 0xc6, 0x15, 0xb2, 0x2e, 0x01, 0x1c, 0x4c, 0xdd, 0xad, 0xd4, 0x2b, 0x16, 0x70, 0x14, 0x8e, 0x28, 0x10, 0x3e, 0x44, 0x27, 0x11, 0xae, 0xd2, 0x0b, 0x5d, 0xc8, 0x84, 0xdd, 0x28, 0x37, 0xbc, 0xe2, 0xf8, 0xa3, 0x08, 0x5f, 0xb5, 0xee, 0x5b, 0x53, 0xd1, 0xba, 0x34, 0x9c, 0x2c, 0x11, 0xf1, 0xcc, 0xf0, 0xd8, 0x8b, 0x27, 0x0f, 0x7e, 0x45, 0x0b, 0x3f, 0xf1, 0xe4, 0xf1, 0x31, 0xa5, 0x95, 0xbb, 0x6c, 0xf0, 0x0e, 0x91, 0x2b, 0x46, 0x84, 0x10, 0x36, 0x58, 0x7a, 0x6e, 0xbf, 0x2b, 0x78, 0xd9, 0x7c, 0xba, 0xe8, 0xff, 0x51, 0x69, 0x20, 0x1c, 0x91, 0xc5, 0x70, 0xb0, 0x42, 0x2e, 0x96, 0xa0, 0x63, 0x2f, 0xcb, 0xcd, 0x87, 0xd3, 0x82, 0x36, 0x6a, 0x82, 0x59, 0xb4, 0xd7, 0x29, 0x29, 0x7f, 0x90, 0x91, 0xbd, 0xad, 0x29, 0x15, 0xe7, 0x6a, 0xb5, 0x0b, 0x2d, 0x8c, 0x5c, 0x00, 0x4f, 0x76, 0x11, 0xab, 0xf5, 0x65, 0x30, 0xd6, 0x3a, 0x8f, 0xa8, 0x6a, 0x8d, 0xa4, 0xa5, 0xf1, 0xe1, 0xc4, 0xe5, 0x2f, 0xec, 0xc5, 0xe2, 0xb3, 0xd1, 0xa9, 0x42, 0xef, 0x29, 0x65, 0x8e, 0xe0, 0x60, 0x9e, 0xe3, 0xbd, 0x21, 0xbc, 0x35, 0xd2, 0xf4, 0x21, 0xe4, 0xd1, 0x8e, 0x56, 0xbe, 0xf3, 0x24, 0x06, 0x31, 0xef, 0x12, 0x0d, 0xeb, 0x09, 0xe5, 0xb5, 0x0b, 0xbc, 0xba, 0x52, 0x28, 0x8e, 0x9b, 0xe9, 0x83, 0xaf, 0xb3, 0x37, 0x6c, 0xd4, 0xdb, 0xcb, 0xdd, 0x11, 0x2f, 0x02, 0xec, 0x36, 0xa3, 0x68, 0xc4, 0xf2, 0xf5, 0x6f, 0xa7, 0x5f, 0xe7, 0x78, 0x75, 0xdd, 0x34, 0xa1, 0xc6, 0x6c, 0xcb, 0x46, 0xa6, 0x43, 0xd2, 0x53, 0xe9, 0x8a, 0x5e, 0xc5, 0xda, 0x3e, 0x61, 0x2c, 0x39, 0x00, 0xe6, 0x82, 0xbd, 0xd5, 0x34, 0x33, 0xc7, 0x49, 0x6e, 0x4a, 0x81, 0xa8, 0x35, 0x73, 0xce, 0x36, 0x38, 0xa5, 0xe3, 0x5b, 0x9c, 0x16, 0xb2, 0xa4, 0x94, 0x1c, 0x7d, 0xb0, 0x27, 0xde, 0x91, 0xf5, 0xde, 0x53, 0xd0, 0xeb, 0x36, 0xa3, 0x08, 0x7f, 0x99, 0x86, 0xe8, 0x57, 0x0e, 0xe2, 0x96, 0x4c, 0x5b, 0x6d, 0xb1, 0xd8, 0x38, 0x2a, 0xd7, 0x86, 0x57, 0xfb, 0x86, 0xff, 0x6b, 0xc4, 0x25, 0x49, 0x5c, 0x77, 0xe7, 0xbd, 0x63, 0x1f, 0x40, 0xef, 0x06, 0x5e, 0x15, 0x12, 0x14, 0xd5, 0xfa, 0x92, 0x92, 0x97, 0x99, 0x83, 0x0b, 0x95, 0xf9, 0x72, 0x07, 0xc1, 0xf4, 0xa6, 0x48, 0x45, 0x9a, 0xf2, 0x71, 0x5d, 0x2f, 0x16, 0x11, 0x36, 0xfe, 0x2d, 0x30, 0x9c, 0x46, 0x4b, 0x69, 0x22, 0x86, 0xed, 0x38, 0xef, 0x34, 0xfd, 0x42, 0x1c, 0xc5, 0xbd, 0x95, 0xea, 0x5f, 0x87, 0x6e, 0xfa, 0x9d, 0x64, 0x5c, 0x69, 0x65, 0xb9, 0xb9, 0x03, 0xbd, 0x88, 0xcf, 0x69, 0x69, 0x67, 0x94, 0x8b, 0xe5, 0xc3, 0xe2, 0xce, 0xda, 0xc7, 0xb4, 0x17, 0x1e, 0x5f, 0x50, 0x52, 0x60, 0xf8, 0x14, 0xa9, 0xf2, 0xd2, 0xf3, 0x8b, 0x0c, 0x03, 0x97, 0x1d, 0x81, 0x48, 0xa6, 0x95, 0x96, 0x1d, 0x52, 0x8d, 0x34, 0x08, 0xf4, 0x16, 0xc8, 0x08, 0x9b, 0xc7, 0xf8, 0x5e, 0x82, 0x72, 0x02, 0x51, 0xc9, 0x60, 0x24, 0xa5, 0xe9, 0xbe, 0x59, 0xbd, 0x6e, 0x2a, 0x4e, 0x18, 0xb3, 0x11, 0x2d, 0x09, 0xba, 0xa9, 0xe5, 0xca, 0x2f, 0x6e, 0xa3, 0x99, 0x88, 0xd8, 0xd5, 0x77, 0x5e, 0x7c, 0x82, 0x9b, 0xfe, 0x72, 0x8f, 0x53, 0x8e, 0xf0, 0x48, 0x03, 0x0e, 0x5c, 0xc6, 0x63, 0x01, 0xb5, 0x4b, 0xa5, 0xf4, 0xf7, 0xf5, 0xf3, 0x00, 0x1a, 0xd4, 0x4c, 0x76, 0x5d, 0x01, 0x2c, 0x3b, 0x75, 0xf3, 0xa0, 0xfb, 0x7f, 0xc5, 0x52, 0x84, 0x4c, 0xff, 0xe1, 0x50, 0xc9, 0x7a, 0x85, 0x78, 0xeb, 0x9c, 0x1f, 0x0d, 0xfe, 0x5e, 0x3e, 0x1f, 0x53, 0xef, 0x37, 0xf7, 0xb1, 0x19, 0x8e, 0x02, 0x5a, 0xf0, 0xdc, 0x71, 0x6d, 0x19, 0x2f, 0x99, 0xde, 0x3e, 0x60, 0x45, 0x61, 0xe7, 0xb9, 0xda, 0x50, 0x4d, 0xce, 0xa0, 0x18, 0x64, 0x19, 0x82, 0x1b, 0x0f, 0x0a, 0x1d, 0x39, 0xbf, 0x9e, 0x9b, 0xe1, 0xab, 0x18, 0xc8, 0x52, 0x97, 0xc5, 0x1d, 0x27, 0x14, 0x13, 0xea, 0xb1, 0x78, 0x5b, 0x3d, 0xe1, 0xad, 0x59, 0xda, 0x08, 0xef, 0x4a, 0xd9, 0xa7, 0x1b, 0xd9, 0x70, 0xca, 0x9a, 0x5f, 0x7c, 0x95, 0x72, 0x3b, 0x8b, 0xd0, 0xe6, 0x78, 0x6a, 0x6d, 0xaf, 0x0a, 0xe5, 0xc6, 0x6e, 0x99, 0x9f, 0xcb, 0x2a, 0xda, 0xd9, 0xd6, 0xef, 0x4b, 0x42, 0x2f, 0x2a, 0xc6, 0x99, 0xc3, 0x4c, 0x4c, 0xd2, 0x4d, 0xdf, 0xe0, 0x28, 0x3f, 0x0c, 0x13, 0xc1, 0xf4, 0xdc, 0x0a, 0x1d, 0x3b, 0x47, 0x15, 0x30, 0xcc, 0x40, 0xe7, 0xcc, 0xbc, 0xd7, 0xf8, 0x1e, 0x65, 0x56, 0xfb, 0x16, 0x0d, 0x88, 0x28, 0x12, 0x64, 0xa4, 0x39, 0x96, 0xc1, 0xee, 0x8d, 0x93, 0x5c, 0xf2, 0x9e, 0x02, 0xc4, 0x4d, 0xe7, 0x1d, 0xb9, 0xd3, 0xd3, 0xf4, 0x17, 0xd9, 0x10, 0xe8, 0x1c, 0xc7, 0xf7, 0xe6, 0x15, 0x01, 0xc2, 0xd8, 0x5f, 0xdf, 0x8a, 0x53, 0x40, 0x44, 0xdf, 0x02, 0x40, 0x50, 0x42, 0xa1, 0xab, 0x53, 0x2a, 0x81, 0x1a, 0x14, 0xa1, 0x91, 0x5e, 0x36, 0xcc, 0x54, 0x49, 0xdd, 0xde, 0xcf, 0xdd, 0x38, 0x35, 0x0b, 0xac, 0x52, 0xca, 0x69, 0xb4, 0xd8, 0x5e, 0x5e, 0x0c, 0xd3, 0xd5, 0x63, 0x49, 0xe6, 0x65, 0xba, 0xaa, 0x43, 0xb0, 0xf1, 0xb4, 0x3e, 0x25, 0x32, 0x96, 0x07, 0xf6, 0xbb, 0xa6, 0x41, 0x26, 0x69, 0xf5, 0xfa, 0xc5, 0x54, 0x3e, 0x0b, 0x37, 0x0d, 0x94, 0xa1, 0x5d, 0x76, 0xa4, 0x42, 0x73, 0xf6, 0x0c, 0x85, 0x8a, 0x31, 0xb7, 0x55, 0x15, 0x11, 0xed, 0x04, 0xbe, 0xa6, 0x29, 0xf7, 0xd1, 0xce, 0x52, 0x7a, 0xe2, 0x5b, 0x23, 0xaf, 0xdc, 0x78, 0xc3, 0x0f, 0xb2, 0x99, 0x89, 0x4e, 0x12, 0x6b, 0xc7, 0x8b, 0x28, 0x1b, 0xd6, 0xa0, 0x97, 0x4e, 0x8d, 0xa4, 0x66, 0x20, 0x13, 0x27, 0xa5, 0xe4, 0x1e, 0x13, 0x95, 0xec, 0x42, 0xe0, 0x00, 0xf5, 0x19, 0xb9, 0x58, 0x27, 0xfe, 0x57, 0x99, 0x87, 0x95, 0xd3, 0x57, 0x77, 0x8e, 0x81, 0x24, 0xf2, 0x08, 0x4d, 0xcb, 0x2f, 0x41, 0x77, 0x4e, 0x50, 0x35, 0x1b, 0x16, 0x1f, 0xe6, 0xcc, 0x40, 0xff, 0xe0, 0x1d, 0x67, 0x70, 0x51, 0x36, 0xb4, 0xd9, 0x2b, 0xde, 0x88, 0x04, 0xb5, 0x53, 0xfd, 0x9b, 0x4b, 0xe7, 0xf2, 0xd0, 0x19, 0x94, 0xb3, 0xd6, 0xb6, 0x2b, 0x13, 0x6e, 0x18, 0xe0, 0x58, 0x8f, 0xef, 0xaa, 0x6e, 0x5c, 0xea, 0x69, 0x3a, 0x59, 0x72, 0x1a, 0x6d, 0xa9, 0xba, 0xf6, 0x5c, 0x76, 0xa7, 0x9a, 0xf1, 0x8b, 0xac, 0x69, 0xb1, 0xde, 0x90, 0x9d, 0xe8, 0xe8, 0x42, 0x31, 0xdc, 0x26, 0xa1, 0x00, 0x71, 0xb3, 0x92, 0x48, 0xbf, 0x6a, 0xb3, 0x9f, 0xee, 0x56, 0x3a, 0x0a, 0x6a, 0x30, 0x14, 0xa8, 0xc8, 0xba, 0x2d, 0x07, 0x1f, 0x06, 0x05, 0xc2, 0x28, 0x81, 0x20, 0x1f, 0x98, 0x0c, 0xf9, 0xd1, 0x9b, 0x9a, 0xe3, 0x05, 0x05, 0xad, 0x49, 0x0e, 0x92, 0xaa, 0xdd, 0x34, 0xf8, 0x25, 0x57, 0x33, 0xf0, 0xf5, 0xa2, 0xc2, 0x20, 0xba, 0x01, 0xf7, 0xa5, 0x5c, 0x42, 0x57, 0x40, 0xa2, 0xc5, 0x2d, 0x20, 0xbd, 0x3a, 0xfa, 0x3e, 0x67, 0xf6, 0xa3, 0xf7, 0x94, 0x0e, 0xb7, 0x05, 0x4a, 0x50, 0xb5, 0x0b, 0xd5, 0x46, 0xb9, 0xe7, 0xe9, 0x56, 0x3a, 0x68, 0xb9, 0x7f, 0x30, 0xb1, 0x32, 0x5b, 0xda, 0x5b, 0x61, 0xe9, 0x53, 0xf9, 0x68, 0x99, 0x2c, 0x0f, 0xf2, 0xea, 0xff, 0xc1, 0x1b, 0x66, 0x32, 0x05, 0x6c, 0xe6, 0x1e, 0xf5, 0xc0, 0x96, 0x1c, 0x99, 0x9c, 0xdd, 0x67, 0x46, 0x53, 0xbd, 0xef, 0x91, 0x51, 0xe6, 0x07, 0x3e, 0x63, 0x03, 0x13, 0x95, 0x38, 0x48, 0x3a, 0xdf, 0xf4, 0x4d, 0x62, 0x28, 0x4a, 0xf4, 0x1b, 0x50, 0x5c, 0x38, 0x16, 0xc0, 0x52, 0x35, 0xf7, 0xd9, 0xe9, 0x05, 0xbe, 0x08, 0xb0, 0x1c, 0x3a, 0xbe, 0x62, 0xc7, 0xe7, 0xe8, 0x07, 0xe5, 0x16, 0x5e, 0xe6, 0xf4, 0x7f, 0xdf, 0x14, 0x17, 0xaf, 0xed, 0xe2, 0x18, 0xc4, 0x16, 0x6c, 0x5a, 0x32, 0x07, 0xc0, 0x34, 0x0a, 0x58, 0x04, 0x36, 0xb2, 0xab, 0xf5, 0xd6, 0xb2, 0xcb, 0x39, 0x13, 0xdd, 0xe9, 0x02, 0x48, 0xc9, 0x04, 0x6a, 0x62, 0xeb, 0xcf, 0xae, 0x5f, 0xa7, 0x58, 0x3f, 0xa9, 0xfb, 0x62, 0x11, 0x06, 0x4d, 0xec, 0x41, 0xd2, 0xae, 0x26, 0x6d, 0x42, 0xe6, 0xbc, 0xd4, 0xe2, 0xd4, 0xec, 0xdc, 0xc0, 0x3b, 0xea, 0xc6, 0x60, 0x88, 0x66, 0x19, 0x5c, 0xce, 0x32, 0x41, 0x07, 0xe4, 0xf4, 0x0f, 0xac, 0x56, 0x4f, 0xc3, 0x5b, 0xf3, 0xbc, 0xd8, 0x43, 0x22, 0x1b, 0xdd, 0x0f, 0xed, 0x20, 0x08, 0x39, 0xd3, 0x4e, 0x14, 0xbe, 0x3f, 0xd8, 0x1e, 0x2c, 0xa3, 0xbe, 0xc6, 0xfd, 0xd4, 0x09, 0xa3, 0x58, 0x02, 0x8b, 0x24, 0xcb, 0xe5, 0x51, 0x85, 0xaa, 0x64, 0xfc, 0x3b, 0x09, 0x72, 0xc3, 0x28, 0x20, 0xf3, 0x70, 0x3f, 0x12, 0x51, 0x85, 0x53, 0xc4, 0x74, 0x8b, 0x6a, 0xba, 0xb7, 0xb7, 0x0d, 0x81, 0xb1, 0x54, 0xcd, 0xe2, 0x76, 0x60, 0xe0, 0x0c, 0x86, 0xe3, 0x4d, 0x4f, 0xb6, 0xcb, 0x5a, 0xd4, 0x6f, 0xba, 0xf2, 0xc0, 0xc0, 0xbd, 0xb7, 0x21, 0x07, 0x5c, 0x49, 0x14, 0x0e, 0x9f, 0x0a, 0xce, 0x71, 0xe0, 0x68, 0x59, 0x5d, 0x16, 0x68, 0x0c, 0x75, 0xb2, 0xfa, 0x82, 0x6e, 0x57, 0x63, 0xcd, 0x9c, 0x1c, 0xa3, 0xed, 0x9a, 0x06, 0xb7, 0x24, 0xc5, 0x10, 0xc0, 0x05, 0x84, 0xe7, 0x0b, 0x01, 0x84, 0x5b, 0x35, 0x43, 0xdc, 0x3a, 0xdb, 0xd1, 0xb6, 0xc3, 0xae, 0xbb, 0xc4, 0x1a, 0x6a, 0x59, 0xaa, 0xa2, 0xa0, 0x63, 0x2c, 0x8a, 0xed, 0x07, 0x2d, 0x4d, 0x3b, 0x89, 0x72, 0xb2, 0x8c, 0x58, 0x88, 0x2a, 0xf7, 0xb6, 0xdc, 0xc6, 0xfd, 0xf5, 0xec, 0x88, 0xce, 0x74, 0x95, 0xe8, 0xd1, 0x4f, 0x17, 0x08, 0x90, 0xcf, 0x8f, 0x12, 0xfd, 0x3d, 0xf5, 0xf8, 0xb9, 0xf6, 0x3d, 0x89, 0xea, 0xe2, 0xe6, 0x66, 0x58, 0x8a, 0x44, 0xbb, 0x9a, 0x40, 0x76, 0xe3, 0x01, 0xfa, 0x72, 0xaf, 0x73, 0xa2, 0x19, 0x69, 0xdd, 0xc1, 0xe0, 0x9c, 0x53, 0x73, 0x4c, 0x61, 0xc3, 0xe5, 0x8d, 0x1c, 0xdf, 0x29, 0x73, 0x51, 0xbf, 0xff, 0x90, 0xae, 0x2b, 0xdc, 0x2d, 0x82, 0x40, 0xa2, 0x52, 0x88, 0x07, 0x90, 0x29, 0xc3, 0x28, 0x56, 0xb1, 0x3d, 0xd7, 0x58, 0xfd, 0x23, 0xc2, 0x86, 0x90, 0xfe, 0x82, 0x81, 0x72, 0xbd, 0x3c, 0x1f, 0xc7, 0x5b, 0xce, 0x9a, 0xbd, 0xed, 0x45, 0x1c, 0x67, 0x28, 0xca, 0xa9, 0x1a, 0x98, 0xdf, 0x48, 0x5c, 0x2d, 0xc1, 0xe6, 0x85, 0xf8, 0xf4, 0xb9, 0x27, 0xfc, 0x2c, 0x21, 0x0c, 0xc6, 0xc1, 0x5c, 0x1a, 0x83, 0x66, 0xab, 0x71, 0x47, 0x2f, 0xd6, 0xeb, 0xa3, 0x2c, 0xe4, 0x6e, 0x07, 0x4f, 0x63, 0x4d, 0x0a, 0xe2, 0xd2, 0xe7, 0x6d, 0x04, 0x28, 0xb3, 0x65, 0x43, 0x2f, 0x39, 0x23, 0xf4, 0xbe, 0xa7, 0xc0, 0xf1, 0x88, 0x83, 0x71, 0x1d, 0xa4, 0xe4, 0xeb, 0x08, 0x0d, 0xa8, 0x1d, 0x10, 0x59, 0x01, 0xac, 0x26, 0xe4, 0xc3, 0xeb, 0x59, 0xab, 0xcb, 0x48, 0xa0, 0xe8, 0x05, 0x1f, 0xcf, 0xb0, 0x4b, 0xfa, 0xca, 0xe4, 0x2d, 0xac, 0x5a, 0xf4, 0xbe, 0x50, 0x59, 0x2e, 0x59, 0x65, 0xf4, 0x9e, 0xf0, 0xc0, 0xc8, 0x43, 0xb2, 0xe5, 0x1e, 0xb0, 0xba, 0xe2, 0x0e, 0x14, 0xbd, 0x22, 0xc7, 0xcf, 0x43, 0xf2, 0x5f, 0x31, 0x3d, 0xdc, 0xde, 0x50, 0x57, 0xdf, 0x17, 0xc6, 0xe3, 0x21, 0x1f, 0x22, 0x20, 0x00, 0xb1, 0x2c, 0x5e, 0x25, 0xfa, 0x24, 0x41, 0xca, 0xb1, 0x81, 0xd0, 0x39, 0x13, 0x41, 0x16, 0x97, 0xd3, 0x29, 0xe3, 0x02, 0x48, 0x30, 0x1e, 0xb2, 0x22, 0xbf, 0xd0, 0x48, 0x5c, 0x0d, 0x0e, 0x1c, 0x0c, 0x22, 0x42, 0xba, 0xd2, 0xe5, 0xdc, 0xfb, 0x56, 0x26, 0xac, 0xb5, 0x18, 0xc1, 0x9f, 0x22, 0x61, 0xcd, 0xb6, 0xf7, 0xde, 0xc6, 0xb5, 0x52, 0x0a, 0x0d, 0x4e, 0xa1, 0xaa, 0xed, 0xdb, 0xe6, 0x0f, 0x18, 0x22, 0xdb, 0x42, 0xd2, 0x24, 0x51, 0x4e, 0x2a, 0x4f, 0x8e, 0xf0, 0x07, 0xbd, 0x46, 0xb0, 0x3c, 0x46, 0x67, 0x92, 0x63, 0xdd, 0xde, 0xd9, 0x4a, 0x90, 0xc2, 0xea, 0xff, 0x4b, 0xde, 0x13, 0x5e, 0x98, 0x0d, 0x24, 0xd9, 0xec, 0xe5, 0x56, 0x0f, 0x38, 0x41, 0x06, 0xdd, 0xbf, 0xc1, 0x33, 0x18, 0xc1, 0x2b, 0x9b, 0x07, 0xa8, 0xef, 0x03, 0xfd, 0x30, 0xdb, 0xdd, 0xac, 0xa4, 0xf1, 0xf0, 0xdf, 0x56, 0x24, 0xf6, 0xdb, 0x4c, 0x46, 0xca, 0x32, 0x26, 0x31, 0x66, 0x8c, 0xc3, 0x68, 0x23, 0xc1, 0x3b, 0x40, 0x13, 0x5f, 0xe0, 0x25, 0xf3, 0xcf, 0xa5, 0x22, 0x93, 0xc3, 0x03, 0x72, 0x10, 0x5b, 0x49, 0x16, 0xe7, 0xb8, 0x05, 0x02, 0x72, 0x84, 0xa8, 0xc7, 0xcc, 0xea, 0xa9, 0x81, 0x21, 0xd9, 0x37, 0xae, 0x56, 0x12, 0x3b, 0x0e, 0x57, 0x0e, 0x58, 0x46, 0xc1, 0xe6, 0x1d, 0x0a, 0xd1, 0x64, 0x00, 0x57, 0x0d, 0xde, 0x36, 0xe6, 0xf9, 0x25, 0x39, 0xdd, 0x38, 0xae, 0xa3, 0x19, 0x3e, 0x15, 0xea, 0xea, 0x61, 0xba, 0x29, 0xc8, 0x0c, 0x26, 0xf8, 0xfe, 0xbb, 0xe4, 0xcb, 0x91, 0x33, 0xc8, 0xff, 0x0a, 0x10, 0x01, 0xab, 0x51, 0x67, 0x5e, 0x35, 0x63, 0x50, 0xf3, 0x1a, 0x35, 0x0d, 0x55, 0x59, 0xe0, 0x17, 0xb2, 0x3b, 0xb8, 0x7a, 0x27, 0xb1, 0x26, 0x26, 0xc5, 0xa1, 0xbd, 0xe5, 0x03, 0x1e, 0xbb, 0xd3, 0x4c, 0x33, 0x44, 0x27, 0x25, 0xea, 0xe5, 0x79, 0xe4, 0x13, 0x6e, 0x3d, 0xdc, 0x27, 0x3c, 0x15, 0xde, 0x40, 0x0c, 0x42, 0xd7, 0xf6, 0x2c, 0x89, 0xc7, 0x2b, 0x29, 0xf7, 0xba, 0x39, 0x61, 0x53, 0x4c, 0xd9, 0xb6, 0xc2, 0xd4, 0x2c, 0xfd, 0x28, 0xed, 0x4c, 0x40, 0x62, 0x33, 0xd5, 0x35, 0x81, 0xce, 0xc1, 0x6c, 0xfc, 0xe7, 0x52, 0xdc, 0xce, 0xf3, 0xae, 0x2c, 0x7c, 0xe5, 0xd8, 0xa5, 0x8b, 0x4e, 0xa2, 0x45, 0xd8, 0x9e, 0x3f, 0x6c, 0x0c, 0xcd, 0x93, 0x03, 0xf7, 0x34, 0x36, 0xad, 0xca, 0xbc, 0x6f, 0x01, 0x6f, 0x67, 0xec, 0xd6, 0xed, 0xf2, 0x9f, 0x9e, 0x1e, 0x08, 0x3f, 0x6d, 0x2c, 0x76, 0x01, 0xf4, 0x7f, 0x22, 0x99, 0xde, 0x6f, 0x0e, 0x9f, 0xb9, 0xce, 0x25, 0xc1, 0x56, 0x9a, 0x99, 0x1d, 0xeb, 0x3e, 0xdf, 0xaf, 0x58, 0x5f, 0x26, 0xb7, 0xa6, 0x2d, 0x5f, 0x19, 0xee, 0x2a, 0xa9, 0xf2, 0x66, 0x12, 0xf6, 0xd4, 0x5b, 0x05, 0x9a, 0xf7, 0xbe, 0x4f, 0xd3, 0x55, 0x1e, 0x44, 0x00, 0xd7, 0xeb, 0xba, 0x20, 0xd6, 0xe6, 0xa0, 0x97, 0xb7, 0xcb, 0xea, 0x4e, 0xc0, 0x94, 0xdd, 0x0f, 0xe0, 0x30, 0xb5, 0x1a, 0x0e, 0x1a, 0xda, 0x5e, 0x19, 0x2c, 0xe6, 0x34, 0xeb, 0xdf, 0xc1, 0x2e, 0x35, 0x4d, 0xd4, 0xdf, 0xc4, 0x34, 0xa4, 0x3d, 0x45, 0x31, 0xc1, 0x05, 0x4e, 0x2e, 0xd1, 0x0c, 0x15, 0xb5, 0xb1, 0x2b, 0x51, 0x7c, 0xef, 0x10, 0x16, 0xf6, 0xa2, 0x5e, 0x98, 0xde, 0x19, 0x0a, 0xc7, 0x56, 0x40, 0xd0, 0xc3, 0xe7, 0xbc, 0xe7, 0xa9, 0x81, 0xd1, 0x12, 0xf9, 0x13, 0x0f, 0x53, 0x43, 0x22, 0xe7, 0xf2, 0x29, 0xf8, 0xa5, 0x2a, 0xed, 0x36, 0x4f, 0xb3, 0x41, 0x16, 0x4a, 0xdc, 0x1b, 0x31, 0xfe, 0xd9, 0xdc, 0xa9, 0x40, 0x1e, 0xf2, 0xd3, 0x11, 0x47, 0xad, 0xdf, 0xf0, 0x3d, 0xf3, 0x11, 0xd6, 0x51, 0xa0, 0xb9, 0xab, 0x2d, 0xaa, 0xd8, 0x62, 0x95, 0x31, 0x9f, 0x14, 0x0f, 0x24, 0xe0, 0x58, 0x65, 0x42, 0x46, 0xda, 0xe1, 0x3e, 0x0d, 0x27, 0x5a, 0x18, 0x96, 0xf6, 0xa2, 0xf9, 0x2a, 0x7d, 0x53, 0x09, 0x3a, 0x26, 0x4e, 0xb6, 0xa7, 0x04, 0x0e, 0x8f, 0x56, 0x43, 0x2d, 0xf5, 0x8c, 0xec, 0x70, 0x16, 0x57, 0xe3, 0x1b, 0x77, 0x98, 0x16, 0xd8, 0x32, 0xa1, 0x69, 0x10, 0xf7, 0x9a, 0x74, 0x95, 0x5d, 0x97, 0xd3, 0xab, 0x37, 0x21, 0x3e, 0x43, 0xdc, 0xf5, 0xa3, 0x95, 0x58, 0x54, 0xf6, 0xa8, 0xcc, 0xc3, 0x98, 0x07, 0x5d, 0xf0, 0xf2, 0xe7, 0xce, 0xe4, 0xdc, 0x25, 0xed, 0xe4, 0x01, 0x06, 0x46, 0xeb, 0x0f, 0x3f, 0x46, 0xae, 0xe1, 0x5a, 0x58, 0x2b, 0x22, 0x24, 0x73, 0x0c, 0x9a, 0xfa, 0x01, 0xaa, 0xe2, 0xa6, 0xd1, 0xaf, 0xa7, 0xb4, 0x70, 0x06, 0xfd, 0x46, 0x3c, 0xcc, 0x49, 0x08, 0x2f, 0xfc, 0x81, 0x30, 0xdb, 0xa6, 0x1a, 0x1b, 0xbe, 0x2a, 0x06, 0xa0, 0x1e, 0x8a, 0x0c, 0x3b, 0x67, 0xa3, 0xb5, 0x22, 0xc1, 0x25, 0x4e, 0x5f, 0x99, 0xd1, 0x95, 0xbd, 0x2f, 0xbe, 0x76, 0x22, 0x87, 0x14, 0x2f, 0x96, 0xbe, 0xe0, 0xc5, 0xac, 0x15, 0x62, 0xcc, 0x0d, 0xfa, 0x26, 0xba, 0xb9, 0x5a, 0x02, 0xbf, 0xf7, 0xfe, 0x82, 0xb2, 0x0f, 0x94, 0xd5, 0x21, 0xd6, 0xcb, 0xfa, 0xeb, 0xba, 0xe3, 0x0e, 0xb8, 0xcf, 0x78, 0x44, 0x84, 0xca, 0xbb, 0x19, 0x97, 0x31, 0xcf, 0x44, 0x2d, 0xdd, 0x11, 0x98, 0x49, 0x65, 0xc0, 0x6b, 0xc7, 0xcc, 0x98, 0xf3, 0x8f, 0xce, 0x65, 0xfb, 0xd1, 0xc1, 0x72, 0xf3, 0xd1, 0x9a, 0x07, 0x75, 0xeb, 0x75, 0xbe, 0xa0, 0xaf, 0xe9, 0x53, 0x1c, 0x9b, 0x9d, 0xcf, 0xe2, 0x46, 0xd3, 0x6e, 0x0c, 0x08, 0x70, 0x2f, 0x54, 0xf3, 0xbb, 0xaa, 0xac, 0x73, 0x07, 0x64, 0xc8, 0xbb, 0xb6, 0xe3, 0x4b, 0x33, 0xb6, 0xb8, 0xc5, 0x71, 0xde, 0xa3, 0xa7, 0xcc, 0x09, 0x7f, 0x8d, 0x6d, 0x6e, 0x23, 0x69, 0xcf, 0x93, 0x8a, 0x04, 0xc4, 0xa5, 0x18, 0xb7, 0xab, 0x66, 0xa1, 0x74, 0x6a, 0x90, 0x2e, 0x5a, 0x73, 0x58, 0xba, 0x01, 0x6f, 0x3d, 0x6c, 0x13, 0x6e, 0xac, 0x86, 0x7c, 0xb3, 0x78, 0x1b, 0x2b, 0xc9, 0x62, 0x4e, 0x8c, 0xda, 0x13, 0x89, 0x91, 0x3f, 0xa0, 0x6a, 0x04, 0x20, 0xd3, 0x26, 0xa0, 0xd2, 0xcb, 0xea, 0x8d, 0x39, 0x9a, 0x4e, 0x93, 0x90, 0x4c, 0x8d, 0x97, 0x8a, 0xf2, 0xad, 0x08, 0x58, 0x2a, 0x86, 0x57, 0x64, 0x9f, 0x8f, 0xbd, 0x16, 0x46, 0xda, 0x78, 0xeb, 0x36, 0xe5, 0x74, 0x6b, 0x71, 0xa6, 0x19, 0x31, 0x87, 0xb0, 0x70, 0x06, 0x47, 0x92, 0x8b, 0x60, 0x4c, 0xb1, 0x40, 0x25, 0x5f, 0x56, 0x43, 0x6e, 0x16, 0x44, 0xca, 0xba, 0x4d, 0x81, 0x84, 0x14, 0x90, 0xb6, 0xc9, 0x44, 0xc2, 0x1b, 0x24, 0xd0, 0x4f, 0xbd, 0xfc, 0xea, 0x67, 0x43, 0xbf, 0xb1, 0xa7, 0xc1, 0xc6, 0x56, 0xb6, 0xdf, 0xf6, 0xbe, 0x16, 0x6d, 0xd7, 0xdc, 0x8f, 0x2e, 0xd9, 0x75, 0x11, 0x21, 0x05, 0x91, 0xb4, 0x99, 0x31, 0x25, 0x9a, 0xcf, 0x8e, 0xb0, 0x84, 0x74, 0xe8, 0x7a, 0x4a, 0x65, 0x24, 0x7b, 0x5b, 0xa8, 0xf8, 0xe5, 0x14, 0x5b, 0xf3, 0x91, 0x5c, 0xe3, 0xc8, 0x86, 0x67, 0xa9, 0x55, 0x0b, 0xe4, 0x48, 0x11, 0xbd, 0x4b, 0x0b, 0x0a, 0xf5, 0x0d, 0xb8, 0x24, 0x2c, 0xf3, 0x13, 0x62, 0x06, 0x69, 0x11, 0xfb, 0x4d, 0xc4, 0x1c, 0x43, 0x1b, 0x11, 0x3d, 0xbc, 0xf3, 0x34, 0xe8, 0xcd, 0x1c, 0x35, 0x42, 0xef, 0x0b, 0x31, 0x43, 0x48, 0x9e, 0xcd, 0x12, 0xb3, 0x5e, 0x63, 0x50, 0xb1, 0x22, 0x0e, 0x37, 0xf8, 0xee, 0xce, 0xe4, 0xfc, 0x40, 0xa0, 0x2c, 0x55, 0x39, 0xc0, 0xdf, 0xa9, 0x17, 0xaf, 0x33, 0x4b, 0xb0, 0x2a, 0x3b, 0xd5, 0xf3, 0x1a, 0xd4, 0x23, 0x34, 0x27, 0xa8, 0xf1, 0x0b, 0xcc, 0x27, 0x16, 0xd1, 0x47, 0x1a, 0xe1, 0x57, 0x2a, 0x18, 0xbf, 0x67, 0xdd, 0xc0, 0x0a, 0x1c, 0x24, 0xe2, 0xa1, 0xc1, 0x3f, 0xb7, 0xf8, 0xdd, 0xc0, 0x81, 0x74, 0xda, 0xc0, 0x10, 0xee, 0x23, 0x3f, 0x21, 0xe9, 0xe9, 0xf9, 0x01, 0xcc, 0x19, 0x3e, 0xb0, 0x21, 0x4d, 0xaa, 0x08, 0x02, 0x5d, 0x4c, 0x37, 0xdd, 0xc6, 0x3e, 0xf4, 0x60, 0xbd, 0x01, 0x44, 0x1b, 0xf7, 0xc9, 0xfa, 0x49, 0x30, 0x16, 0xe8, 0x2e, 0x24, 0x09, 0x78, 0x5c, 0x54, 0x36, 0xfe, 0xf6, 0xb6, 0x6b, 0x7f, 0x43, 0xdf, 0x81, 0x4d, 0x56, 0x01, 0x1f, 0x1d, 0xbc, 0x31, 0x5f, 0x97, 0xd0, 0x9e, 0xcb, 0xf9, 0xaa, 0xd9, 0x90, 0x70, 0xd1, 0x0a, 0xe8, 0x11, 0xc0, 0x7f, 0x71, 0xb5, 0x2f, 0x45, 0x47, 0xf8, 0xc3, 0x50, 0xce, 0x62, 0xb2, 0xd2, 0x53, 0xf0, 0xac, 0x61, 0x58, 0xf8, 0x7c, 0xb6, 0xde, 0xae, 0x75, 0x07, 0xd8, 0x1e, 0x4f, 0x8e, 0x90, 0x44, 0x25, 0xef, 0xaa, 0xb4, 0xbb, 0xa4, 0xd3, 0x3d, 0xbb, 0x52, 0xf5, 0x69, 0x88, 0xb2, 0x90, 0x8e, 0x2a, 0x3b, 0x99, 0xc2, 0xbe, 0x7d, 0x4c, 0xd6, 0x18, 0x26, 0xff, 0xd2, 0x1e, 0xb0, 0xdf, 0xd1, 0x90, 0xea, 0x33, 0xf1, 0x9a, 0xce, 0x6f, 0x14, 0xc9, 0x05, 0x85, 0x9f, 0x28, 0x2f, 0x41, 0xb1, 0xd7, 0x8a, 0x86, 0xa7, 0x2e, 0x35, 0x11, 0x7b, 0x9b, 0x8c, 0x6d, 0xbf, 0x44, 0x4a, 0x01, 0x09, 0xc5, 0xe1, 0xdb, 0xff, 0x8d, 0x88, 0xd2, 0x99, 0x51, 0xd7, 0xc4, 0x3b, 0xfc, 0xb6, 0x8c, 0x30, 0xf3, 0xe9, 0x2e, 0xf1, 0x05, 0x50, 0x32, 0xc9, 0xca, 0x2f, 0xaa, 0x8a, 0x4b, 0xb3, 0x66, 0xb5, 0x8f, 0x0c, 0xd0, 0xf1, 0xc8, 0xce, 0x5a, 0x8b, 0x75, 0x3b, 0x71, 0xf4, 0x20, 0x4d, 0x5a, 0x24, 0xec, 0x05, 0x71, 0x59, 0xd3, 0x9d, 0x44, 0xab, 0x2b, 0xe5, 0xbc, 0xb1, 0x57, 0x28, 0xd0, 0x4b, 0xc3, 0x33, 0xec, 0xd9, 0x91, 0x65, 0xed, 0x6e, 0xaf, 0xd8, 0x7f, 0x51, 0x0e, 0xde, 0x36, 0x75, 0x3c, 0xb5, 0x58, 0xae, 0xa2, 0x7e, 0xa4, 0x34, 0xaa, 0xa8, 0xfc, 0x6a, 0xa1, 0xd3, 0x90, 0x0d, 0x0d, 0xe8, 0xd7, 0x56, 0x1a, 0x57, 0x00, 0x93, 0x13, 0xca, 0x8c, 0x83, 0x45, 0x8e, 0xbd, 0x57, 0xdf, 0xa7, 0xb3, 0x7f, 0xed, 0xac, 0x0c, 0x9e, 0xd1, 0x0c, 0x6e, 0xe0, 0x44, 0x49, 0xff, 0xe9, 0x60, 0xd7, 0x73, 0xec, 0xc3, 0xa4, 0xe8, 0x50, 0xcc, 0xf8, 0xa0, 0x4c, 0x11, 0xc1, 0x2a, 0xf4, 0x39, 0x1d, 0x5b, 0x69, 0x01, 0xe6, 0x08, 0x60, 0xcf, 0xe9, 0x30, 0x68, 0xfb, 0x51, 0x08, 0xb5, 0x86, 0x8f, 0x0c, 0x11, 0xe4, 0xe9, 0x2b, 0x26, 0xf0, 0x3e, 0x30, 0x66, 0xf5, 0xff, 0xff, 0x04, 0x00, 0x00, 0x00, 0x00, 0x01, 0x00, 0x00, 0x00, 0x00, 0x00, 0x00, 0x00, 0x00, 0x00, 0x00, 0x84, 0xfb, 0xff, 0xff, 0x32, 0xf9, 0xff, 0xff, 0x00, 0x00, 0x00, 0x00, 0x5f, 0x00, 0x00, 0x00, 0x42, 0xf8, 0xff, 0xff, 0xbb, 0xff, 0xff, 0xff, 0x00, 0x00, 0x00, 0x00, 0x77, 0xfa, 0xff, 0xff, 0xf2, 0xfa, 0xff, 0xff, 0xe9, 0xf9, 0xff, 0xff, 0x90, 0x00, 0x00, 0x00, 0x00, 0x00, 0x00, 0x00, 0xc6, 0x01, 0x00, 0x00, 0x00, 0x00, 0x00, 0x00, 0xa7, 0xf9, 0xff, 0xff, 0x96, 0xfb, 0xff, 0xff, 0x9d, 0xfb, 0xff, 0xff, 0x25, 0xfc, 0xff, 0xff, 0x00, 0x00, 0x00, 0x00, 0xa6, 0x03, 0x00, 0x00, 0x1f, 0xfa, 0xff, 0xff, 0x00, 0x00, 0x00, 0x00, 0x6b, 0x00, 0x00, 0x00, 0x2e, 0xf9, 0xff, 0xff, 0x00, 0x00, 0x00, 0x00, 0xf8, 0x02, 0x00, 0x00, 0x84, 0xfd, 0xff, 0xff, 0xd0, 0x02, 0x00, 0x00, 0xdb, 0xfa, 0xff, 0xff, 0xdf, 0xf3, 0xff, 0xff, 0x00, 0x00, 0x00, 0x00, 0x00, 0x00, 0x00, 0x00, 0x9f, 0xfa, 0xff, 0xff, 0x7f, 0xfe, 0xff, 0xff, 0x96, 0xfb, 0xff, 0xff, 0x00, 0x00, 0x00, 0x00, 0x07, 0xfb, 0xff, 0xff, 0xad, 0xfe, 0xff, 0xff, 0xcc, 0xf8, 0xff, 0xff, 0x00, 0x00, 0x00, 0x00, 0xc1, 0xf9, 0xff, 0xff, 0xe4, 0xf6, 0xff, 0xff, 0x00, 0x00, 0x00, 0x00, 0x00, 0x00, 0x00, 0x00, 0xfd, 0xf8, 0xff, 0xff, 0xec, 0x00, 0x00, 0x00, 0x48, 0xf9, 0xff, 0xff, 0x83, 0xfb, 0xff, 0xff, 0x75, 0xfd, 0xff, 0xff, 0x9e, 0x06, 0x00, 0x00, 0xc2, 0xfa, 0xff, 0xff, 0xd9, 0xfa, 0xff, 0xff, 0x5b, 0xfc, 0xff, 0xff, 0xde, 0xfb, 0xff, 0xff, 0xc8, 0xfe, 0xff, 0xff, 0x7a, 0xfa, 0xff, 0xff, 0xe5, 0xfc, 0xff, 0xff, 0x00, 0x00, 0x00, 0x00, 0x00, 0x00, 0x00, 0x00, 0x48, 0x01, 0x00, 0x00, 0x00, 0x00, 0x00, 0x00, 0x5b, 0xfe, 0xff, 0xff, 0x72, 0xf6, 0xff, 0xff, 0x04, 0x00, 0x00, 0x00, 0x00, 0x08, 0x00, 0x00, 0x73, 0xf7, 0x03, 0x4c, 0x39, 0x81, 0xbe, 0xee, 0x61, 0x8b, 0xfa, 0xb0, 0x86, 0x8a, 0x0b, 0x12, 0x0f, 0x0a, 0x26, 0x1f, 0x7e, 0xb3, 0xde, 0xe9, 0x57, 0xb6, 0xb6, 0xc8, 0x83, 0x75, 0xe9, 0x60, 0x38, 0xf4, 0x6b, 0xb4, 0x17, 0xf6, 0x48, 0xbd, 0x11, 0xf5, 0xba, 0xf2, 0x36, 0xba, 0xac, 0xe9, 0x93, 0x46, 0x52, 0x64, 0x34, 0x77, 0xc7, 0x83, 0x86, 0xb6, 0xf1, 0x12, 0x41, 0x0a, 0x3d, 0x3f, 0xa8, 0x1d, 0x4e, 0x29, 0xb2, 0x9e, 0xc9, 0xc3, 0x2b, 0x90, 0x4f, 0xb4, 0x4d, 0xbc, 0x2d, 0xd0, 0xe3, 0x95, 0x58, 0xa6, 0xf7, 0x10, 0xa1, 0x1f, 0x5e, 0x63, 0xdf, 0xf1, 0x01, 0xd3, 0xb3, 0xcd, 0x07, 0x9a, 0x6a, 0x81, 0xc7, 0xa1, 0xf9, 0x5d, 0x8b, 0xc9, 0xcb, 0xb0, 0x55, 0xe9, 0xb6, 0x45, 0xc2, 0x36, 0xe1, 0xc0, 0x00, 0xcd, 0x34, 0xab, 0xe1, 0x97, 0xe8, 0xac, 0xe7, 0x26, 0x09, 0xcc, 0xfe, 0xc0, 0x77, 0x1d, 0xa2, 0x27, 0x3c, 0x7f, 0xc7, 0x2a, 0x07, 0x5f, 0xa9, 0x29, 0x31, 0xe2, 0xc6, 0xe3, 0x2c, 0x4a, 0x05, 0xc5, 0x5c, 0x13, 0x10, 0x2a, 0x19, 0x11, 0xd6, 0x6b, 0x19, 0x4a, 0xc0, 0xe1, 0xc3, 0x10, 0x33, 0x31, 0x3a, 0x5f, 0xdc, 0x46, 0x65, 0xc9, 0x00, 0x1d, 0x6d, 0x4b, 0x04, 0x33, 0x03, 0x28, 0x23, 0xe9, 0xf8, 0xab, 0x51, 0x2b, 0x4e, 0xd9, 0x14, 0x08, 0xe2, 0xc4, 0xaf, 0x16, 0x62, 0x0e, 0x5c, 0x9f, 0x9c, 0xab, 0xcb, 0xdf, 0xfb, 0x8d, 0x21, 0x3c, 0xf2, 0xac, 0xcc, 0x40, 0x23, 0x0f, 0x02, 0xb3, 0xe7, 0x69, 0x6e, 0x65, 0x77, 0xcf, 0xc5, 0x99, 0x3f, 0x92, 0x54, 0xfc, 0xe3, 0xbc, 0xfd, 0x74, 0x20, 0x9c, 0x47, 0x17, 0x4a, 0x59, 0x31, 0x5d, 0x66, 0x0e, 0xef, 0x44, 0x23, 0x98, 0xc0, 0x81, 0x39, 0xb2, 0xc1, 0x3c, 0x6f, 0xcc, 0x2d, 0xaf, 0x2c, 0xbf, 0x78, 0x16, 0x2a, 0x79, 0xf3, 0x72, 0x8e, 0x30, 0xd3, 0xec, 0x38, 0xaf, 0xca, 0x9f, 0xd8, 0x21, 0xc7, 0x9e, 0x8a, 0xf9, 0xe6, 0xc7, 0xb7, 0x05, 0x21, 0x97, 0xf8, 0x4d, 0x48, 0x22, 0xaa, 0x25, 0x4f, 0x64, 0xd4, 0xc9, 0x53, 0x41, 0x33, 0xd9, 0x08, 0x64, 0xa3, 0x24, 0x61, 0xc9, 0xea, 0x66, 0xa2, 0x32, 0x4f, 0x7f, 0x5c, 0x30, 0x8b, 0x19, 0x34, 0xb4, 0x2b, 0xc3, 0x8f, 0x60, 0xcf, 0x7f, 0xca, 0x48, 0xe2, 0x40, 0x28, 0xe7, 0x45, 0xf1, 0xcb, 0xf5, 0x08, 0x31, 0xa8, 0x38, 0xe9, 0xa5, 0x5b, 0xf7, 0xd9, 0x01, 0x03, 0xfe, 0x16, 0xd6, 0x63, 0x5c, 0x47, 0x09, 0xd5, 0x7f, 0x2a, 0xfc, 0x0c, 0xe1, 0xd3, 0xa6, 0x01, 0x52, 0xeb, 0x1b, 0x23, 0xef, 0xf9, 0xec, 0x31, 0xce, 0x45, 0xc0, 0x2a, 0xbe, 0xe3, 0x42, 0x14, 0x37, 0xae, 0x4e, 0x15, 0x34, 0x54, 0x05, 0x28, 0x56, 0xa8, 0x1f, 0xfd, 0xc9, 0x70, 0xc5, 0xa4, 0x45, 0x1b, 0x7f, 0x84, 0x49, 0x2c, 0xa1, 0x0f, 0xc8, 0x1d, 0x11, 0x05, 0x1d, 0xd3, 0x63, 0xa0, 0x34, 0x0b, 0x11, 0x60, 0x72, 0xae, 0x8b, 0x1b, 0x13, 0x10, 0xea, 0xd5, 0xd1, 0x08, 0x1e, 0x23, 0xd5, 0xd7, 0x57, 0x37, 0xb4, 0xcc, 0x4b, 0x42, 0x4d, 0x9c, 0xa4, 0x46, 0xc6, 0x70, 0x0a, 0x0f, 0x2b, 0xcd, 0xd1, 0x38, 0xc1, 0xc3, 0x57, 0x7a, 0xee, 0xbd, 0xac, 0x73, 0xcd, 0xed, 0x56, 0xb0, 0xab, 0x06, 0x81, 0x59, 0x0e, 0x57, 0xd5, 0x0d, 0xae, 0x10, 0x08, 0x94, 0xd7, 0x44, 0x58, 0x12, 0xf0, 0x59, 0xa3, 0x33, 0xa1, 0x42, 0x04, 0xa6, 0x8a, 0xb1, 0xc2, 0x2e, 0xe9, 0x0b, 0xae, 0x49, 0x37, 0xa6, 0x94, 0xc2, 0x05, 0x44, 0x0a, 0xd2, 0x75, 0x66, 0x43, 0x14, 0x19, 0xdf, 0x3c, 0xa4, 0x03, 0x6e, 0xac, 0x46, 0x0e, 0xc7, 0x06, 0x98, 0xaa, 0x10, 0xb6, 0xf5, 0xec, 0x9d, 0x40, 0xfa, 0x9c, 0xff, 0xdb, 0x2e, 0x54, 0x33, 0xe0, 0xda, 0x3f, 0x0a, 0x35, 0x59, 0x47, 0x03, 0xf1, 0xcf, 0x5d, 0xcb, 0x33, 0x22, 0xee, 0xee, 0x11, 0xe8, 0x06, 0x09, 0xf0, 0xa8, 0x39, 0xda, 0x3a, 0xb0, 0x21, 0xb6, 0x81, 0x48, 0x2c, 0x3a, 0x4d, 0x47, 0x0c, 0xcb, 0x1a, 0x26, 0xc6, 0x1a, 0x0d, 0x06, 0x3b, 0xda, 0x29, 0x1f, 0x13, 0x0d, 0x22, 0x38, 0xab, 0xb1, 0x00, 0x5f, 0xcb, 0x8f, 0x76, 0x1d, 0xa5, 0x69, 0x3f, 0x4d, 0x6d, 0xef, 0x0c, 0xf3, 0x07, 0x02, 0xc3, 0x07, 0x36, 0x20, 0x57, 0xe2, 0x8a, 0x99, 0x0e, 0x21, 0x4a, 0x2c, 0xa9, 0x69, 0x18, 0x71, 0x2c, 0x0d, 0xdc, 0x5d, 0xc2, 0xd9, 0x51, 0xbb, 0x26, 0xf2, 0xbc, 0xd4, 0xe9, 0xe7, 0x92, 0x6a, 0x9d, 0x30, 0x0f, 0x16, 0x81, 0xde, 0x3f, 0xc2, 0xd2, 0x90, 0x20, 0x2c, 0x35, 0xb8, 0x19, 0xf7, 0xe7, 0x41, 0x70, 0x92, 0x3c, 0x84, 0x28, 0xc6, 0xd7, 0xa5, 0x47, 0x95, 0x40, 0x3c, 0x00, 0xea, 0xbc, 0x95, 0x48, 0x1e, 0x6c, 0x8a, 0xc6, 0xbe, 0xd4, 0x45, 0x20, 0x47, 0x46, 0xbd, 0x6e, 0x44, 0x48, 0x8f, 0xa4, 0xe4, 0xdc, 0x6c, 0x35, 0xa2, 0xfc, 0x2f, 0x98, 0xb2, 0x2c, 0xc8, 0x81, 0x31, 0x2d, 0x26, 0x6d, 0x5e, 0xa3, 0xc0, 0x14, 0x9b, 0xf7, 0x38, 0x8c, 0xfb, 0xdb, 0x00, 0x63, 0x0d, 0x60, 0x51, 0x0d, 0x78, 0xd9, 0x04, 0x3c, 0x30, 0x24, 0xc6, 0xcb, 0xd0, 0x42, 0xe3, 0xfc, 0x7f, 0x05, 0xb3, 0x12, 0x56, 0x49, 0xb7, 0x1e, 0x5b, 0x30, 0x42, 0x00, 0xac, 0x57, 0x50, 0x63, 0x0f, 0xe0, 0x33, 0xc8, 0xee, 0x10, 0xc9, 0xb8, 0x26, 0x72, 0xf3, 0xb2, 0x30, 0xb6, 0x15, 0x44, 0x01, 0x08, 0x44, 0x72, 0xe7, 0xf9, 0xfa, 0x04, 0xee, 0x31, 0x59, 0x4e, 0xef, 0xed, 0x51, 0xdf, 0xd7, 0x3e, 0xf3, 0x60, 0x61, 0x27, 0xdc, 0xd8, 0xb1, 0x28, 0xc8, 0x60, 0xc8, 0x33, 0xcc, 0x5b, 0x7f, 0x17, 0x4d, 0x26, 0xb4, 0x1c, 0xe0, 0xf9, 0xc5, 0xe6, 0xd0, 0xb8, 0xca, 0x45, 0xbc, 0x46, 0xa7, 0xb6, 0x22, 0xe3, 0x28, 0xee, 0x64, 0x42, 0x24, 0x18, 0xf5, 0xfe, 0x0f, 0xbb, 0x33, 0x29, 0xf8, 0x53, 0xef, 0xe1, 0xd4, 0xd3, 0x55, 0x33, 0x98, 0x38, 0x69, 0xea, 0xf1, 0xe9, 0xe2, 0x41, 0xfc, 0x2c, 0xfd, 0xd2, 0xba, 0x36, 0xf0, 0xd3, 0x2b, 0xdb, 0x53, 0x31, 0x1b, 0x44, 0x28, 0xf8, 0x11, 0xce, 0xd1, 0xae, 0x33, 0xf4, 0x4d, 0xdf, 0x65, 0x5e, 0x96, 0xb5, 0xda, 0x04, 0xdb, 0x49, 0x3d, 0x19, 0xa0, 0xba, 0x4e, 0x5b, 0x8b, 0x20, 0xe2, 0xaf, 0x83, 0x4a, 0x0b, 0x93, 0x10, 0x69, 0x3f, 0x95, 0x18, 0xd5, 0x26, 0x10, 0x15, 0x08, 0xa3, 0x81, 0xea, 0xd6, 0x15, 0xd1, 0xfd, 0xaa, 0x90, 0x0b, 0x0e, 0x45, 0xed, 0x47, 0xb4, 0x81, 0xe8, 0xd2, 0x1c, 0x46, 0xbe, 0xee, 0xc4, 0x34, 0x05, 0xca, 0xf2, 0x21, 0x45, 0xdc, 0xd4, 0xda, 0x3d, 0x3f, 0xba, 0xdd, 0xb7, 0xf5, 0x36, 0xff, 0xd3, 0x16, 0x4c, 0x28, 0xc9, 0x21, 0x20, 0xfc, 0xe0, 0xaf, 0x59, 0x02, 0x3a, 0x12, 0xaa, 0x17, 0x3a, 0x4e, 0x3a, 0xf1, 0xf4, 0xf4, 0x01, 0xf9, 0x0b, 0xdf, 0x13, 0xde, 0xe2, 0xdf, 0xb1, 0x0d, 0x45, 0xc5, 0x9c, 0x0a, 0x70, 0x6a, 0x0f, 0x16, 0x04, 0xff, 0xfa, 0xe5, 0xf8, 0xd9, 0xdd, 0x60, 0x4b, 0xea, 0x6c, 0x09, 0x0c, 0x3c, 0x21, 0xd2, 0x41, 0xf8, 0xdb, 0x98, 0x6b, 0xb9, 0x24, 0x4d, 0x5d, 0x3a, 0x8c, 0x04, 0x11, 0xa4, 0xaf, 0xd5, 0x44, 0xe1, 0x81, 0xd8, 0xbd, 0xe4, 0x50, 0xfd, 0xb4, 0x6a, 0xaf, 0x51, 0x14, 0xac, 0xcc, 0x39, 0x1b, 0xa6, 0xa7, 0x35, 0x54, 0x19, 0x04, 0xf9, 0xff, 0xc3, 0x2f, 0xb6, 0x36, 0xb6, 0xc1, 0x42, 0x26, 0xf6, 0x9b, 0x01, 0x2e, 0xa8, 0x94, 0x68, 0x14, 0x20, 0xde, 0x4f, 0x05, 0xeb, 0x8e, 0x32, 0x18, 0xb5, 0xb3, 0xfc, 0x01, 0x8d, 0xa4, 0xf2, 0x40, 0x27, 0x74, 0x04, 0x2a, 0x95, 0xa9, 0xcb, 0x23, 0xac, 0xb1, 0x9c, 0x8c, 0x8a, 0x33, 0x5a, 0xee, 0xb2, 0x81, 0x3d, 0xb6, 0xef, 0x4f, 0xe6, 0x41, 0x6a, 0xba, 0x17, 0xc0, 0x60, 0xb2, 0x2d, 0x92, 0xf1, 0x94, 0xd7, 0x36, 0xf5, 0x25, 0x98, 0x4c, 0xcb, 0x31, 0xf8, 0x69, 0x63, 0x15, 0x15, 0xfb, 0xcf, 0x6d, 0x71, 0x94, 0x6d, 0x0d, 0xa1, 0xa6, 0x13, 0xbe, 0xa1, 0xf7, 0x81, 0x93, 0xd6, 0x49, 0x59, 0x69, 0x6f, 0x34, 0x69, 0xd0, 0x1b, 0x05, 0x19, 0xc0, 0x08, 0x69, 0x36, 0x89, 0x3b, 0x50, 0xb4, 0x2e, 0x40, 0x69, 0xd9, 0x01, 0x58, 0xa1, 0x09, 0xc6, 0x14, 0x0b, 0xbf, 0xb0, 0x10, 0x1f, 0xa7, 0xa6, 0xe1, 0x81, 0xb0, 0x2f, 0xac, 0xee, 0x1d, 0x9e, 0x03, 0x0c, 0xad, 0x3e, 0x5e, 0xa5, 0xd2, 0x13, 0xe3, 0xc9, 0x50, 0x4f, 0x3c, 0x0d, 0x3e, 0x48, 0x20, 0x61, 0xdf, 0x1e, 0xd4, 0xfb, 0xc8, 0xc4, 0x25, 0xf8, 0x3d, 0xf6, 0x5e, 0x4f, 0xe7, 0xfe, 0xb7, 0x30, 0xfa, 0xa3, 0x22, 0xde, 0x0e, 0x1b, 0xc1, 0x3f, 0x51, 0x3c, 0xf7, 0x23, 0xe5, 0x19, 0xfe, 0xa9, 0xc6, 0x1d, 0xad, 0x30, 0x29, 0x42, 0xb6, 0x7f, 0xd1, 0xe0, 0x0e, 0x41, 0xfc, 0x3e, 0x35, 0xc6, 0xb8, 0xc7, 0x24, 0x6d, 0x14, 0x03, 0xdc, 0xb2, 0x3b, 0x35, 0x29, 0xb1, 0xf4, 0xec, 0xf0, 0xf0, 0xe5, 0xe4, 0x7e, 0x1a, 0xc1, 0x18, 0xf9, 0x39, 0xfb, 0xcd, 0x37, 0x2b, 0xef, 0xf9, 0xce, 0x0e, 0xde, 0x4b, 0xe7, 0xdf, 0x10, 0x14, 0x5c, 0x03, 0x13, 0xe7, 0xd0, 0x4f, 0x10, 0xc3, 0xd2, 0x2a, 0xb4, 0xf3, 0x11, 0xeb, 0x08, 0x2f, 0xfc, 0x15, 0xf2, 0xf1, 0xd5, 0xa3, 0x3c, 0xe4, 0x3d, 0x63, 0x56, 0x3c, 0x3f, 0x36, 0x09, 0xa9, 0x00, 0xec, 0xdd, 0x4d, 0x54, 0x23, 0xff, 0x08, 0x5c, 0x2f, 0xd5, 0x4f, 0x46, 0x20, 0x45, 0xda, 0x3c, 0xc0, 0x1d, 0xf7, 0xe3, 0xcb, 0x7f, 0xcf, 0x9e, 0xea, 0x38, 0xe3, 0xd7, 0x60, 0x03, 0xd1, 0xac, 0xd1, 0x46, 0xa3, 0x08, 0x48, 0x0b, 0xd5, 0x93, 0xbf, 0x0a, 0xc7, 0xe2, 0xdf, 0xff, 0x6c, 0x96, 0xa9, 0x2a, 0xfd, 0xfc, 0xb3, 0x00, 0xba, 0x21, 0xdd, 0xf1, 0x3a, 0x0b, 0xc0, 0x6c, 0x6f, 0xba, 0x42, 0x6a, 0x53, 0xee, 0x00, 0xa5, 0x7f, 0x53, 0xc3, 0x38, 0x8f, 0xdb, 0x8b, 0x3f, 0xf6, 0x19, 0x64, 0xbd, 0xb3, 0xe2, 0xec, 0x07, 0xb8, 0x67, 0xf7, 0x67, 0x5f, 0x5f, 0xab, 0x43, 0xc7, 0xa0, 0x8b, 0x57, 0x1d, 0x32, 0x28, 0x07, 0x3d, 0xe3, 0xad, 0xe4, 0xdd, 0xa1, 0x8b, 0x89, 0x3a, 0xe4, 0x3c, 0x27, 0xc2, 0x58, 0x31, 0x40, 0xf6, 0x07, 0xb6, 0x45, 0xe5, 0x56, 0x7f, 0x05, 0x46, 0xbb, 0xf0, 0xc3, 0x3b, 0x49, 0x37, 0x0a, 0x2e, 0xf2, 0x59, 0xc3, 0xe8, 0x65, 0xee, 0xbf, 0xd3, 0x24, 0xe9, 0x33, 0xbe, 0x54, 0xc2, 0x61, 0x0e, 0xd1, 0x13, 0xad, 0xbf, 0xd7, 0xbc, 0xb7, 0xe5, 0xb7, 0xbf, 0x2b, 0xbd, 0xd4, 0xc0, 0x28, 0x10, 0x53, 0x4f, 0xd6, 0x51, 0x33, 0x27, 0x47, 0x34, 0x21, 0x81, 0x37, 0x2c, 0x28, 0xf9, 0x87, 0xa2, 0x2a, 0x44, 0x15, 0x6b, 0x35, 0xf7, 0xd5, 0xcf, 0x1b, 0x62, 0xe5, 0x43, 0xc1, 0xb5, 0xe0, 0xe3, 0xb4, 0x08, 0x42, 0xce, 0x85, 0xfc, 0x27, 0x57, 0xdf, 0x17, 0xe6, 0x57, 0x15, 0xe7, 0xe7, 0x37, 0x39, 0x41, 0x07, 0xb8, 0xdd, 0xf7, 0xec, 0x2f, 0xc9, 0xf8, 0x05, 0x90, 0xe2, 0x2c, 0xea, 0x49, 0xa1, 0xc2, 0xb6, 0x22, 0xe8, 0xab, 0x00, 0x0e, 0xb5, 0xbd, 0x2f, 0xdf, 0xc7, 0x03, 0x94, 0xc0, 0xfc, 0x1e, 0xfa, 0x04, 0x01, 0x8e, 0xad, 0xb3, 0xb1, 0xfa, 0xd5, 0xbb, 0x45, 0xf5, 0xc0, 0xf3, 0x4c, 0x46, 0xe2, 0x30, 0x81, 0xf5, 0x03, 0x48, 0xfd, 0x1f, 0x4b, 0xae, 0x51, 0xe8, 0x84, 0x07, 0x3b, 0x19, 0x11, 0xc7, 0xe5, 0x01, 0xf6, 0xeb, 0x08, 0x29, 0x58, 0xda, 0x4a, 0x25, 0xd6, 0xfb, 0x52, 0xae, 0x30, 0xec, 0xfc, 0x22, 0xc7, 0x4a, 0xdc, 0x2e, 0x41, 0x61, 0xe1, 0xbb, 0x00, 0xf7, 0x01, 0xa0, 0xac, 0xb8, 0xd2, 0xd4, 0xa9, 0x32, 0xa7, 0x4f, 0x1c, 0x58, 0xec, 0x2e, 0x49, 0xa4, 0x4f, 0xd9, 0xb0, 0x41, 0x1e, 0xcc, 0xc4, 0xc2, 0x10, 0xd0, 0x5c, 0xf3, 0x2d, 0x4f, 0x7f, 0xd4, 0x0f, 0x13, 0xb7, 0xa0, 0x42, 0xf8, 0x58, 0xd6, 0xe2, 0xb3, 0x55, 0xdb, 0xd0, 0xec, 0xb9, 0xd8, 0x14, 0x4e, 0x11, 0x31, 0xd8, 0x34, 0x17, 0x54, 0xcb, 0x3c, 0xfa, 0xba, 0xa2, 0x14, 0xa3, 0x40, 0x53, 0xf6, 0x9d, 0xee, 0x18, 0xbc, 0x1d, 0xd8, 0x30, 0x00, 0x1d, 0x45, 0x98, 0xab, 0x5a, 0x81, 0x00, 0x96, 0xb6, 0x11, 0xc9, 0x85, 0x31, 0x77, 0x8a, 0xbc, 0xd4, 0xa7, 0xc4, 0xaf, 0x09, 0x1f, 0xf0, 0x6f, 0x19, 0x42, 0x4c, 0x67, 0xcd, 0x84, 0x82, 0x13, 0x37, 0x2b, 0x33, 0xe3, 0xb3, 0x93, 0xf9, 0x98, 0xd5, 0x53, 0x38, 0x9a, 0xa4, 0xc6, 0x3f, 0x13, 0x56, 0x4b, 0x14, 0xec, 0x28, 0xc3, 0x5d, 0xe8, 0xea, 0xb4, 0xde, 0x63, 0x24, 0xf2, 0x27, 0x20, 0x12, 0x52, 0x17, 0x2d, 0x4d, 0xd3, 0xb4, 0xde, 0xf4, 0x3b, 0x7f, 0x39, 0x24, 0x2b, 0x52, 0xbe, 0x47, 0xb2, 0xe8, 0xef, 0x1c, 0xef, 0xaf, 0x43, 0x59, 0x4c, 0xb9, 0xc8, 0x39, 0xf5, 0xdc, 0xf5, 0x35, 0xbf, 0xc3, 0xca, 0xc8, 0x39, 0x56, 0x46, 0x32, 0xed, 0xf7, 0xbd, 0x32, 0x2f, 0x19, 0x94, 0x71, 0x8f, 0xad, 0x82, 0x7c, 0x4e, 0x34, 0x05, 0x07, 0x2a, 0xf2, 0x60, 0xab, 0x1d, 0x6e, 0xe3, 0xac, 0x18, 0x67, 0x31, 0xb6, 0xca, 0xb3, 0x33, 0x97, 0xf9, 0x1b, 0x88, 0x1c, 0xc8, 0x99, 0x1b, 0x5a, 0x11, 0x1b, 0x8d, 0xaf, 0x27, 0xbf, 0xb2, 0xe9, 0x98, 0xb9, 0x7c, 0xe2, 0xf9, 0x8b, 0x8f, 0xe9, 0xb9, 0x7f, 0xda, 0x71, 0x14, 0x44, 0x97, 0x6c, 0xe3, 0xaa, 0x4f, 0xc4, 0x39, 0x63, 0x14, 0xe7, 0xf2, 0xc5, 0xe4, 0x0f, 0x09, 0xae, 0xf8, 0xab, 0xa1, 0xa5, 0x78, 0xe2, 0x56, 0x0b, 0xb7, 0xe4, 0x06, 0xe1, 0xd0, 0xa7, 0xf5, 0xe0, 0xd7, 0xd3, 0x13, 0x3d, 0xf9, 0x15, 0x40, 0xb7, 0xda, 0x52, 0x14, 0xc2, 0x25, 0x30, 0xa8, 0xbf, 0xa3, 0xc1, 0x11, 0x31, 0x7f, 0x6d, 0xb9, 0xee, 0xea, 0x5e, 0xfb, 0x58, 0x9e, 0x05, 0xa0, 0x13, 0x64, 0x53, 0xdb, 0x4b, 0x39, 0xcf, 0x8f, 0xc2, 0x49, 0x5b, 0xa7, 0xd8, 0xc8, 0xe3, 0x2e, 0x3e, 0xbf, 0x1a, 0x39, 0xd0, 0x96, 0x0e, 0x22, 0x23, 0xa6, 0xa1, 0x97, 0x8b, 0x98, 0xdb, 0x4b, 0x16, 0x66, 0x35, 0x41, 0xa3, 0xc6, 0x33, 0x16, 0x49, 0xfe, 0x93, 0x22, 0x31, 0x94, 0xce, 0xa1, 0xee, 0x38, 0xa9, 0x1a, 0x4c, 0x95, 0x38, 0x44, 0x59, 0x4d, 0x00, 0x39, 0xbf, 0xf7, 0xa6, 0x1c, 0xe0, 0x81, 0xb1, 0xec, 0xf5, 0x33, 0xcc, 0xd9, 0x10, 0x81, 0xda, 0x53, 0xe9, 0x0d, 0x17, 0x07, 0x2a, 0x2b, 0x19, 0x08, 0x53, 0xd1, 0xa9, 0x4d, 0xe7, 0x3e, 0xb1, 0x58, 0xd2, 0xda, 0x0b, 0x24, 0xfc, 0xa8, 0x3f, 0xf5, 0xb5, 0xdb, 0x13, 0xb5, 0xc6, 0x01, 0x3b, 0xb8, 0x57, 0xe8, 0xa1, 0xbb, 0x0b, 0xaf, 0x11, 0x47, 0x06, 0x47, 0xf7, 0x4f, 0xc3, 0x06, 0xf0, 0x10, 0x02, 0xe2, 0x53, 0x29, 0x41, 0xc6, 0x35, 0xe4, 0x49, 0x1b, 0x2f, 0x7e, 0xfe, 0xff, 0xff, 0x04, 0x00, 0x00, 0x00, 0x80, 0x00, 0x00, 0x00, 0xe5, 0xf6, 0xff, 0xff, 0x2e, 0xf6, 0xff, 0xff, 0x87, 0x18, 0x00, 0x00, 0x6e, 0xf7, 0xff, 0xff, 0xac, 0xff, 0xff, 0xff, 0x6d, 0x02, 0x00, 0x00, 0x0b, 0xf8, 0xff, 0xff, 0x35, 0x01, 0x00, 0x00, 0x7e, 0x00, 0x00, 0x00, 0xb9, 0xf5, 0xff, 0xff, 0x3b, 0xf9, 0xff, 0xff, 0x48, 0x05, 0x00, 0x00, 0xb5, 0x0a, 0x00, 0x00, 0x39, 0xe5, 0xff, 0xff, 0x8d, 0xff, 0xff, 0xff, 0x15, 0xf5, 0xff, 0xff, 0x21, 0xf2, 0xff, 0xff, 0x27, 0xf3, 0xff, 0xff, 0xdf, 0xfc, 0xff, 0xff, 0xb2, 0x11, 0x00, 0x00, 0x63, 0xfe, 0xff, 0xff, 0x8f, 0x0a, 0x00, 0x00, 0xf6, 0x02, 0x00, 0x00, 0xd6, 0xff, 0xff, 0xff, 0x43, 0x0f, 0x00, 0x00, 0xee, 0x07, 0x00, 0x00, 0xe8, 0xf8, 0xff, 0xff, 0xe4, 0x01, 0x00, 0x00, 0xf1, 0xf8, 0xff, 0xff, 0x5b, 0x0f, 0x00, 0x00, 0xfe, 0xf9, 0xff, 0xff, 0x3a, 0xfe, 0xff, 0xff, 0x0a, 0xff, 0xff, 0xff, 0x04, 0x00, 0x00, 0x00, 0x40, 0x00, 0x00, 0x00, 0xf7, 0x50, 0x8a, 0x69, 0xfb, 0xef, 0xd8, 0x5a, 0x6a, 0x56, 0x5b, 0x0f, 0x16, 0x13, 0x55, 0x69, 0x66, 0x31, 0x72, 0x8b, 0x99, 0x90, 0x81, 0x2f, 0x70, 0xa3, 0x26, 0xa7, 0x92, 0xba, 0x52, 0xc2, 0xd3, 0x07, 0xb7, 0x37, 0x4a, 0x6d, 0xe8, 0x1b, 0x30, 0x3b, 0x75, 0x3c, 0x77, 0xf9, 0x81, 0xb2, 0xcd, 0xcc, 0xe7, 0xc2, 0xb9, 0x1a, 0x12, 0x92, 0x2f, 0xb0, 0x96, 0xf6, 0xa3, 0x68, 0xa0, 0x9d, 0x56, 0xff, 0xff, 0xff, 0x04, 0x00, 0x00, 0x00, 0x08, 0x00, 0x00, 0x00, 0x13, 0xfb, 0xff, 0xff, 0x94, 0x05, 0x00, 0x00, 0x38, 0xff, 0xff, 0xff, 0x3c, 0xff, 0xff, 0xff, 0x0f, 0x00, 0x00, 0x00, 0x4d, 0x4c, 0x49, 0x52, 0x20, 0x43, 0x6f, 0x6e, 0x76, 0x65, 0x72, 0x74, 0x65, 0x64, 0x2e, 0x00, 0x01, 0x00, 0x00, 0x00, 0x14, 0x00, 0x00, 0x00, 0x00, 0x00, 0x0e, 0x00, 0x18, 0x00, 0x14, 0x00, 0x10, 0x00, 0x0c, 0x00, 0x08, 0x00, 0x04, 0x00, 0x0e, 0x00, 0x00, 0x00, 0x14, 0x00, 0x00, 0x00, 0x1c, 0x00, 0x00, 0x00, 0x38, 0x01, 0x00, 0x00, 0x3c, 0x01, 0x00, 0x00, 0x40, 0x01, 0x00, 0x00, 0x04, 0x00, 0x00, 0x00, 0x6d, 0x61, 0x69, 0x6e, 0x00, 0x00, 0x00, 0x00, 0x04, 0x00, 0x00, 0x00, 0xe0, 0x00, 0x00, 0x00, 0x98, 0x00, 0x00, 0x00, 0x50, 0x00, 0x00, 0x00, 0x14, 0x00, 0x00, 0x00, 0x00, 0x00, 0x0e, 0x00, 0x1a, 0x00, 0x14, 0x00, 0x10, 0x00, 0x0c, 0x00, 0x0b, 0x00, 0x04, 0x00, 0x0e, 0x00, 0x00, 0x00, 0x1c, 0x00, 0x00, 0x00, 0x00, 0x00, 0x00, 0x09, 0x1c, 0x00, 0x00, 0x00, 0x20, 0x00, 0x00, 0x00, 0x01, 0x00, 0x00, 0x00, 0x00, 0x00, 0x06, 0x00, 0x08, 0x00, 0x04, 0x00, 0x06, 0x00, 0x00, 0x00, 0x00, 0x00, 0x80, 0x3f, 0x01, 0x00, 0x00, 0x00, 0x0a, 0x00, 0x00, 0x00, 0x01, 0x00, 0x00, 0x00, 0x09, 0x00, 0x00, 0x00, 0xca, 0xff, 0xff, 0xff, 0x14, 0x00, 0x00, 0x00, 0x00, 0x00, 0x00, 0x08, 0x10, 0x00, 0x00, 0x00, 0x14, 0x00, 0x00, 0x00, 0x04, 0x00, 0x04, 0x00, 0x04, 0x00, 0x00, 0x00, 0x01, 0x00, 0x00, 0x00, 0x09, 0x00, 0x00, 0x00, 0x03, 0x00, 0x00, 0x00, 0x08, 0x00, 0x00, 0x00, 0x02, 0x00, 0x00, 0x00, 0x01, 0x00, 0x00, 0x00, 0x00, 0x00, 0x0e, 0x00, 0x14, 0x00, 0x00, 0x00, 0x10, 0x00, 0x0c, 0x00, 0x0b, 0x00, 0x04, 0x00, 0x0e, 0x00, 0x00, 0x00, 0x10, 0x00, 0x00, 0x00, 0x00, 0x00, 0x00, 0x08, 0x10, 0x00, 0x00, 0x00, 0x14, 0x00, 0x00, 0x00, 0xba, 0xff, 0xff, 0xff, 0x00, 0x00, 0x00, 0x01, 0x01, 0x00, 0x00, 0x00, 0x08, 0x00, 0x00, 0x00, 0x03, 0x00, 0x00, 0x00, 0x07, 0x00, 0x00, 0x00, 0x04, 0x00, 0x00, 0x00, 0x03, 0x00, 0x00, 0x00, 0x00, 0x00, 0x0e, 0x00, 0x16, 0x00, 0x00, 0x00, 0x10, 0x00, 0x0c, 0x00, 0x0b, 0x00, 0x04, 0x00, 0x0e, 0x00, 0x00, 0x00, 0x18, 0x00, 0x00, 0x00, 0x00, 0x00, 0x00, 0x08, 0x18, 0x00, 0x00, 0x00, 0x1c, 0x00, 0x00, 0x00, 0x00, 0x00, 0x06, 0x00, 0x08, 0x00, 0x07, 0x00, 0x06, 0x00, 0x00, 0x00, 0x00, 0x00, 0x00, 0x01, 0x01, 0x00, 0x00, 0x00, 0x07, 0x00, 0x00, 0x00, 0x03, 0x00, 0x00, 0x00, 0x00, 0x00, 0x00, 0x00, 0x06, 0x00, 0x00, 0x00, 0x05, 0x00, 0x00, 0x00, 0x01, 0x00, 0x00, 0x00, 0x0a, 0x00, 0x00, 0x00, 0x01, 0x00, 0x00, 0x00, 0x00, 0x00, 0x00, 0x00, 0x0b, 0x00, 0x00, 0x00, 0x20, 0x0e, 0x00, 0x00, 0x98, 0x0d, 0x00, 0x00, 0x0c, 0x0d, 0x00, 0x00, 0x38, 0x0b, 0x00, 0x00, 0x5c, 0x09, 0x00, 0x00, 0x08, 0x06, 0x00, 0x00, 0xac, 0x02, 0x00, 0x00, 0xe8, 0x01, 0x00, 0x00, 0x24, 0x01, 0x00, 0x00, 0x80, 0x00, 0x00, 0x00, 0x04, 0x00, 0x00, 0x00, 0x22, 0xf2, 0xff, 0xff, 0x00, 0x00, 0x00, 0x01, 0x18, 0x00, 0x00, 0x00, 0x20, 0x00, 0x00, 0x00, 0x3c, 0x00, 0x00, 0x00, 0x0b, 0x00, 0x00, 0x00, 0x00, 0x00, 0x00, 0x09, 0x50, 0x00, 0x00, 0x00, 0x02, 0x00, 0x00, 0x00, 0xff, 0xff, 0xff, 0xff, 0x02, 0x00, 0x00, 0x00, 0x0c, 0xf2, 0xff, 0xff, 0x08, 0x00, 0x00, 0x00, 0x10, 0x00, 0x00, 0x00, 0x01, 0x00, 0x00, 0x00, 0x80, 0xff, 0xff, 0xff, 0xff, 0xff, 0xff, 0xff, 0x01, 0x00, 0x00, 0x00, 0x00, 0x00, 0x80, 0x3b, 0x1b, 0x00, 0x00, 0x00, 0x53, 0x74, 0x61, 0x74, 0x65, 0x66, 0x75, 0x6c, 0x50, 0x61, 0x72, 0x74, 0x69, 0x74, 0x69, 0x6f, 0x6e, 0x65, 0x64, 0x43, 0x61, 0x6c, 0x6c, 0x5f, 0x31, 0x3a, 0x30, 0x00, 0x02, 0x00, 0x00, 0x00, 0x01, 0x00, 0x00, 0x00, 0x02, 0x00, 0x00, 0x00, 0x9a, 0xf2, 0xff, 0xff, 0x00, 0x00, 0x00, 0x01, 0x18, 0x00, 0x00, 0x00, 0x20, 0x00, 0x00, 0x00, 0x3c, 0x00, 0x00, 0x00, 0x0a, 0x00, 0x00, 0x00, 0x00, 0x00, 0x00, 0x09, 0x78, 0x00, 0x00, 0x00, 0x02, 0x00, 0x00, 0x00, 0xff, 0xff, 0xff, 0xff, 0x02, 0x00, 0x00, 0x00, 0x84, 0xf2, 0xff, 0xff, 0x08, 0x00, 0x00, 0x00, 0x10, 0x00, 0x00, 0x00, 0x01, 0x00, 0x00, 0x00, 0x26, 0x00, 0x00, 0x00, 0x00, 0x00, 0x00, 0x00, 0x01, 0x00, 0x00, 0x00, 0x1b, 0x9b, 0xab, 0x3b, 0x40, 0x00, 0x00, 0x00, 0x73, 0x65, 0x71, 0x75, 0x65, 0x6e, 0x74, 0x69, 0x61, 0x6c, 0x5f, 0x31, 0x5f, 0x31, 0x2f, 0x64, 0x65, 0x6e, 0x73, 0x65, 0x5f, 0x35, 0x5f, 0x31, 0x2f, 0x4d, 0x61, 0x74, 0x4d, 0x75, 0x6c, 0x3b, 0x73, 0x65, 0x71, 0x75, 0x65, 0x6e, 0x74, 0x69, 0x61, 0x6c, 0x5f, 0x31, 0x5f, 0x31, 0x2f, 0x64, 0x65, 0x6e, 0x73, 0x65, 0x5f, 0x35, 0x5f, 0x31, 0x2f, 0x42, 0x69, 0x61, 0x73, 0x41, 0x64, 0x64, 0x00, 0x00, 0x00, 0x00, 0x02, 0x00, 0x00, 0x00, 0x01, 0x00, 0x00, 0x00, 0x02, 0x00, 0x00, 0x00, 0x3a, 0xf3, 0xff, 0xff, 0x00, 0x00, 0x00, 0x01, 0x18, 0x00, 0x00, 0x00, 0x20, 0x00, 0x00, 0x00, 0x40, 0x00, 0x00, 0x00, 0x09, 0x00, 0x00, 0x00, 0x00, 0x00, 0x00, 0x09, 0x98, 0x00, 0x00, 0x00, 0x02, 0x00, 0x00, 0x00, 0xff, 0xff, 0xff, 0xff, 0x20, 0x00, 0x00, 0x00, 0x24, 0xf3, 0xff, 0xff, 0x08, 0x00, 0x00, 0x00, 0x14, 0x00, 0x00, 0x00, 0x01, 0x00, 0x00, 0x00, 0x80, 0xff, 0xff, 0xff, 0xff, 0xff, 0xff, 0xff, 0x00, 0x00, 0x00, 0x00, 0x01, 0x00, 0x00, 0x00, 0x5d, 0x77, 0x54, 0x3b, 0x5e, 0x00, 0x00, 0x00, 0x73, 0x65, 0x71, 0x75, 0x65, 0x6e, 0x74, 0x69, 0x61, 0x6c, 0x5f, 0x31, 0x5f, 0x31, 0x2f, 0x64, 0x65, 0x6e, 0x73, 0x65, 0x5f, 0x34, 0x5f, 0x31, 0x2f, 0x4d, 0x61, 0x74, 0x4d, 0x75, 0x6c, 0x3b, 0x73, 0x65, 0x71, 0x75, 0x65, 0x6e, 0x74, 0x69, 0x61, 0x6c, 0x5f, 0x31, 0x5f, 0x31, 0x2f, 0x64, 0x65, 0x6e, 0x73, 0x65, 0x5f, 0x34, 0x5f, 0x31, 0x2f, 0x52, 0x65, 0x6c, 0x75, 0x3b, 0x73, 0x65, 0x71, 0x75, 0x65, 0x6e, 0x74, 0x69, 0x61, 0x6c, 0x5f, 0x31, 0x5f, 0x31, 0x2f, 0x64, 0x65, 0x6e, 0x73, 0x65, 0x5f, 0x34, 0x5f, 0x31, 0x2f, 0x42, 0x69, 0x61, 0x73, 0x41, 0x64, 0x64, 0x00, 0x00, 0x02, 0x00, 0x00, 0x00, 0x01, 0x00, 0x00, 0x00, 0x20, 0x00, 0x00, 0x00, 0xfa, 0xf3, 0xff, 0xff, 0x00, 0x00, 0x00, 0x01, 0x18, 0x00, 0x00, 0x00, 0x20, 0x00, 0x00, 0x00, 0x40, 0x00, 0x00, 0x00, 0x08, 0x00, 0x00, 0x00, 0x00, 0x00, 0x00, 0x09, 0x98, 0x00, 0x00, 0x00, 0x02, 0x00, 0x00, 0x00, 0xff, 0xff, 0xff, 0xff, 0x40, 0x00, 0x00, 0x00, 0xe4, 0xf3, 0xff, 0xff, 0x08, 0x00, 0x00, 0x00, 0x14, 0x00, 0x00, 0x00, 0x01, 0x00, 0x00, 0x00, 0x80, 0xff, 0xff, 0xff, 0xff, 0xff, 0xff, 0xff, 0x00, 0x00, 0x00, 0x00, 0x01, 0x00, 0x00, 0x00, 0x74, 0x24, 0x89, 0x3b, 0x5e, 0x00, 0x00, 0x00, 0x73, 0x65, 0x71, 0x75, 0x65, 0x6e, 0x74, 0x69, 0x61, 0x6c, 0x5f, 0x31, 0x5f, 0x31, 0x2f, 0x64, 0x65, 0x6e, 0x73, 0x65, 0x5f, 0x33, 0x5f, 0x31, 0x2f, 0x4d, 0x61, 0x74, 0x4d, 0x75, 0x6c, 0x3b, 0x73, 0x65, 0x71, 0x75, 0x65, 0x6e, 0x74, 0x69, 0x61, 0x6c, 0x5f, 0x31, 0x5f, 0x31, 0x2f, 0x64, 0x65, 0x6e, 0x73, 0x65, 0x5f, 0x33, 0x5f, 0x31, 0x2f, 0x52, 0x65, 0x6c, 0x75, 0x3b, 0x73, 0x65, 0x71, 0x75, 0x65, 0x6e, 0x74, 0x69, 0x61, 0x6c, 0x5f, 0x31, 0x5f, 0x31, 0x2f, 0x64, 0x65, 0x6e, 0x73, 0x65, 0x5f, 0x33, 0x5f, 0x31, 0x2f, 0x42, 0x69, 0x61, 0x73, 0x41, 0x64, 0x64, 0x00, 0x00, 0x02, 0x00, 0x00, 0x00, 0x01, 0x00, 0x00, 0x00, 0x40, 0x00, 0x00, 0x00, 0x3e, 0xf5, 0xff, 0xff, 0x00, 0x00, 0x00, 0x01, 0x14, 0x00, 0x00, 0x00, 0x28, 0x03, 0x00, 0x00, 0x07, 0x00, 0x00, 0x00, 0x00, 0x00, 0x00, 0x09, 0x34, 0x03, 0x00, 0x00, 0x94, 0xf4, 0xff, 0xff, 0x08, 0x00, 0x00, 0x00, 0x0c, 0x02, 0x00, 0x00, 0x40, 0x00, 0x00, 0x00, 0x00, 0x00, 0x00, 0x00, 0x00, 0x00, 0x00, 0x00, 0x00, 0x00, 0x00, 0x00, 0x00, 0x00, 0x00, 0x00, 0x00, 0x00, 0x00, 0x00, 0x00, 0x00, 0x00, 0x00, 0x00, 0x00, 0x00, 0x00, 0x00, 0x00, 0x00, 0x00, 0x00, 0x00, 0x00, 0x00, 0x00, 0x00, 0x00, 0x00, 0x00, 0x00, 0x00, 0x00, 0x00, 0x00, 0x00, 0x00, 0x00, 0x00, 0x00, 0x00, 0x00, 0x00, 0x00, 0x00, 0x00, 0x00, 0x00, 0x00, 0x00, 0x00, 0x00, 0x00, 0x00, 0x00, 0x00, 0x00, 0x00, 0x00, 0x00, 0x00, 0x00, 0x00, 0x00, 0x00, 0x00, 0x00, 0x00, 0x00, 0x00, 0x00, 0x00, 0x00, 0x00, 0x00, 0x00, 0x00, 0x00, 0x00, 0x00, 0x00, 0x00, 0x00, 0x00, 0x00, 0x00, 0x00, 0x00, 0x00, 0x00, 0x00, 0x00, 0x00, 0x00, 0x00, 0x00, 0x00, 0x00, 0x00, 0x00, 0x00, 0x00, 0x00, 0x00, 0x00, 0x00, 0x00, 0x00, 0x00, 0x00, 0x00, 0x00, 0x00, 0x00, 0x00, 0x00, 0x00, 0x00, 0x00, 0x00, 0x00, 0x00, 0x00, 0x00, 0x00, 0x00, 0x00, 0x00, 0x00, 0x00, 0x00, 0x00, 0x00, 0x00, 0x00, 0x00, 0x00, 0x00, 0x00, 0x00, 0x00, 0x00, 0x00, 0x00, 0x00, 0x00, 0x00, 0x00, 0x00, 0x00, 0x00, 0x00, 0x00, 0x00, 0x00, 0x00, 0x00, 0x00, 0x00, 0x00, 0x00, 0x00, 0x00, 0x00, 0x00, 0x00, 0x00, 0x00, 0x00, 0x00, 0x00, 0x00, 0x00, 0x00, 0x00, 0x00, 0x00, 0x00, 0x00, 0x00, 0x00, 0x00, 0x00, 0x00, 0x00, 0x00, 0x00, 0x00, 0x00, 0x00, 0x00, 0x00, 0x00, 0x00, 0x00, 0x00, 0x00, 0x00, 0x00, 0x00, 0x00, 0x00, 0x00, 0x00, 0x00, 0x00, 0x00, 0x00, 0x00, 0x00, 0x00, 0x00, 0x00, 0x00, 0x00, 0x00, 0x00, 0x00, 0x00, 0x00, 0x00, 0x00, 0x00, 0x00, 0x00, 0x00, 0x00, 0x00, 0x00, 0x00, 0x00, 0x00, 0x00, 0x00, 0x00, 0x00, 0x00, 0x00, 0x00, 0x00, 0x00, 0x00, 0x00, 0x00, 0x00, 0x00, 0x00, 0x00, 0x00, 0x00, 0x00, 0x00, 0x00, 0x00, 0x00, 0x00, 0x00, 0x00, 0x00, 0x00, 0x00, 0x00, 0x00, 0x00, 0x00, 0x00, 0x00, 0x00, 0x00, 0x00, 0x00, 0x00, 0x00, 0x00, 0x00, 0x00, 0x00, 0x00, 0x00, 0x00, 0x00, 0x00, 0x00, 0x00, 0x00, 0x00, 0x00, 0x00, 0x00, 0x00, 0x00, 0x00, 0x00, 0x00, 0x00, 0x00, 0x00, 0x00, 0x00, 0x00, 0x00, 0x00, 0x00, 0x00, 0x00, 0x00, 0x00, 0x00, 0x00, 0x00, 0x00, 0x00, 0x00, 0x00, 0x00, 0x00, 0x00, 0x00, 0x00, 0x00, 0x00, 0x00, 0x00, 0x00, 0x00, 0x00, 0x00, 0x00, 0x00, 0x00, 0x00, 0x00, 0x00, 0x00, 0x00, 0x00, 0x00, 0x00, 0x00, 0x00, 0x00, 0x00, 0x00, 0x00, 0x00, 0x00, 0x00, 0x00, 0x00, 0x00, 0x00, 0x00, 0x00, 0x00, 0x00, 0x00, 0x00, 0x00, 0x00, 0x00, 0x00, 0x00, 0x00, 0x00, 0x00, 0x00, 0x00, 0x00, 0x00, 0x00, 0x00, 0x00, 0x00, 0x00, 0x00, 0x00, 0x00, 0x00, 0x00, 0x00, 0x00, 0x00, 0x00, 0x00, 0x00, 0x00, 0x00, 0x00, 0x00, 0x00, 0x00, 0x00, 0x00, 0x00, 0x00, 0x00, 0x00, 0x00, 0x00, 0x00, 0x00, 0x00, 0x00, 0x00, 0x00, 0x00, 0x00, 0x00, 0x00, 0x00, 0x00, 0x00, 0x00, 0x00, 0x00, 0x00, 0x00, 0x00, 0x00, 0x00, 0x00, 0x00, 0x00, 0x00, 0x00, 0x00, 0x00, 0x00, 0x00, 0x00, 0x00, 0x00, 0x00, 0x00, 0x00, 0x00, 0x00, 0x00, 0x00, 0x00, 0x00, 0x00, 0x00, 0x00, 0x00, 0x00, 0x00, 0x00, 0x00, 0x00, 0x00, 0x00, 0x00, 0x00, 0x00, 0x00, 0x00, 0x00, 0x00, 0x00, 0x00, 0x00, 0x00, 0x00, 0x00, 0x00, 0x00, 0x00, 0x00, 0x00, 0x00, 0x00, 0x00, 0x00, 0x00, 0x00, 0x00, 0x00, 0x00, 0x00, 0x00, 0x00, 0x00, 0x00, 0x00, 0x00, 0x00, 0x00, 0x00, 0x00, 0x00, 0x00, 0x00, 0x00, 0x00, 0x00, 0x00, 0x00, 0x00, 0x00, 0x00, 0x00, 0x00, 0x00, 0x00, 0x40, 0x00, 0x00, 0x00, 0x39, 0x4f, 0xab, 0x3a, 0x39, 0xfb, 0xaa, 0x3a, 0x8b, 0x96, 0xd4, 0x3a, 0xe4, 0x80, 0xb5, 0x3a, 0x78, 0x0b, 0xac, 0x3a, 0xe9, 0x53, 0xc1, 0x3a, 0x73, 0x33, 0xbf, 0x3a, 0x05, 0x4d, 0xc7, 0x3a, 0x03, 0x8b, 0xac, 0x3a, 0x7f, 0x59, 0xac, 0x3a, 0x7a, 0x0c, 0xb2, 0x3a, 0x65, 0xbf, 0xb3, 0x3a, 0x86, 0x74, 0xaa, 0x3a, 0x7e, 0x9a, 0xac, 0x3a, 0xbe, 0x1f, 0xd4, 0x3a, 0x30, 0x2d, 0xac, 0x3a, 0x3d, 0x47, 0xb1, 0x3a, 0xfb, 0x88, 0xb1, 0x3a, 0xb8, 0xc6, 0xb2, 0x3a, 0x62, 0x7e, 0xae, 0x3a, 0xb8, 0x3b, 0xaa, 0x3a, 0x3a, 0x0b, 0xb1, 0x3a, 0x0e, 0x37, 0xb2, 0x3a, 0x50, 0x62, 0xaa, 0x3a, 0xc6, 0x02, 0xb1, 0x3a, 0x66, 0x68, 0xb7, 0x3a, 0x46, 0x0d, 0xac, 0x3a, 0xb2, 0xec, 0xab, 0x3a, 0xe5, 0xbe, 0xb7, 0x3a, 0x27, 0x54, 0xe7, 0x3a, 0x78, 0x6f, 0xb1, 0x3a, 0xe6, 0x13, 0xb8, 0x3a, 0xdb, 0x93, 0xa8, 0x3a, 0x7e, 0x7a, 0xac, 0x3a, 0xfa, 0x59, 0xb4, 0x3a, 0xc8, 0xfb, 0xbd, 0x3a, 0x2c, 0x5d, 0xb1, 0x3a, 0xfb, 0x72, 0xac, 0x3a, 0xbf, 0xd6, 0xb4, 0x3a, 0x2b, 0x5a, 0xe2, 0x3a, 0x6a, 0xdb, 0xcb, 0x3a, 0x84, 0xb7, 0xaa, 0x3a, 0x28, 0x5d, 0xb4, 0x3a, 0x94, 0xf4, 0xb7, 0x3a, 0xd3, 0xec, 0xab, 0x3a, 0xa4, 0x7c, 0xac, 0x3a, 0x97, 0xbc, 0xab, 0x3a, 0xda, 0xf6, 0xaa, 0x3a, 0x28, 0x3e, 0xc5, 0x3a, 0xd8, 0x85, 0xaf, 0x3a, 0xfb, 0x24, 0xc3, 0x3a, 0x9a, 0x4a, 0xde, 0x3a, 0x9f, 0x11, 0xb3, 0x3a, 0xaf, 0x30, 0xaf, 0x3a, 0x0a, 0x78, 0xd9, 0x3a, 0x03, 0x8c, 0xc2, 0x3a, 0x99, 0x49, 0xb4, 0x3a, 0x0d, 0x4b, 0xd9, 0x3a, 0x2f, 0x14, 0xbd, 0x3a, 0xf9, 0xf3, 0xa8, 0x3a, 0x2e, 0xbc, 0xac, 0x3a, 0xe9, 0xb6, 0xeb, 0x3a, 0x1f, 0xa0, 0xaa, 0x3a, 0x61, 0xea, 0xb1, 0x3a, 0x12, 0x00, 0x00, 0x00, 0x74, 0x66, 0x6c, 0x2e, 0x70, 0x73, 0x65, 0x75, 0x64, 0x6f, 0x5f, 0x71, 0x63, 0x6f, 0x6e, 0x73, 0x74, 0x35, 0x00, 0x00, 0x02, 0x00, 0x00, 0x00, 0x40, 0x00, 0x00, 0x00, 0x96, 0x00, 0x00, 0x00, 0x96, 0xf8, 0xff, 0xff, 0x00, 0x00, 0x00, 0x01, 0x14, 0x00, 0x00, 0x00, 0x24, 0x03, 0x00, 0x00, 0x06, 0x00, 0x00, 0x00, 0x00, 0x00, 0x00, 0x02, 0x30, 0x03, 0x00, 0x00, 0xec, 0xf7, 0xff, 0xff, 0x08, 0x00, 0x00, 0x00, 0x08, 0x02, 0x00, 0x00, 0x40, 0x00, 0x00, 0x00, 0x00, 0x00, 0x00, 0x00, 0x00, 0x00, 0x00, 0x00, 0x00, 0x00, 0x00, 0x00, 0x00, 0x00, 0x00, 0x00, 0x00, 0x00, 0x00, 0x00, 0x00, 0x00, 0x00, 0x00, 0x00, 0x00, 0x00, 0x00, 0x00, 0x00, 0x00, 0x00, 0x00, 0x00, 0x00, 0x00, 0x00, 0x00, 0x00, 0x00, 0x00, 0x00, 0x00, 0x00, 0x00, 0x00, 0x00, 0x00, 0x00, 0x00, 0x00, 0x00, 0x00, 0x00, 0x00, 0x00, 0x00, 0x00, 0x00, 0x00, 0x00, 0x00, 0x00, 0x00, 0x00, 0x00, 0x00, 0x00, 0x00, 0x00, 0x00, 0x00, 0x00, 0x00, 0x00, 0x00, 0x00, 0x00, 0x00, 0x00, 0x00, 0x00, 0x00, 0x00, 0x00, 0x00, 0x00, 0x00, 0x00, 0x00, 0x00, 0x00, 0x00, 0x00, 0x00, 0x00, 0x00, 0x00, 0x00, 0x00, 0x00, 0x00, 0x00, 0x00, 0x00, 0x00, 0x00, 0x00, 0x00, 0x00, 0x00, 0x00, 0x00, 0x00, 0x00, 0x00, 0x00, 0x00, 0x00, 0x00, 0x00, 0x00, 0x00, 0x00, 0x00, 0x00, 0x00, 0x00, 0x00, 0x00, 0x00, 0x00, 0x00, 0x00, 0x00, 0x00, 0x00, 0x00, 0x00, 0x00, 0x00, 0x00, 0x00, 0x00, 0x00, 0x00, 0x00, 0x00, 0x00, 0x00, 0x00, 0x00, 0x00, 0x00, 0x00, 0x00, 0x00, 0x00, 0x00, 0x00, 0x00, 0x00, 0x00, 0x00, 0x00, 0x00, 0x00, 0x00, 0x00, 0x00, 0x00, 0x00, 0x00, 0x00, 0x00, 0x00, 0x00, 0x00, 0x00, 0x00, 0x00, 0x00, 0x00, 0x00, 0x00, 0x00, 0x00, 0x00, 0x00, 0x00, 0x00, 0x00, 0x00, 0x00, 0x00, 0x00, 0x00, 0x00, 0x00, 0x00, 0x00, 0x00, 0x00, 0x00, 0x00, 0x00, 0x00, 0x00, 0x00, 0x00, 0x00, 0x00, 0x00, 0x00, 0x00, 0x00, 0x00, 0x00, 0x00, 0x00, 0x00, 0x00, 0x00, 0x00, 0x00, 0x00, 0x00, 0x00, 0x00, 0x00, 0x00, 0x00, 0x00, 0x00, 0x00, 0x00, 0x00, 0x00, 0x00, 0x00, 0x00, 0x00, 0x00, 0x00, 0x00, 0x00, 0x00, 0x00, 0x00, 0x00, 0x00, 0x00, 0x00, 0x00, 0x00, 0x00, 0x00, 0x00, 0x00, 0x00, 0x00, 0x00, 0x00, 0x00, 0x00, 0x00, 0x00, 0x00, 0x00, 0x00, 0x00, 0x00, 0x00, 0x00, 0x00, 0x00, 0x00, 0x00, 0x00, 0x00, 0x00, 0x00, 0x00, 0x00, 0x00, 0x00, 0x00, 0x00, 0x00, 0x00, 0x00, 0x00, 0x00, 0x00, 0x00, 0x00, 0x00, 0x00, 0x00, 0x00, 0x00, 0x00, 0x00, 0x00, 0x00, 0x00, 0x00, 0x00, 0x00, 0x00, 0x00, 0x00, 0x00, 0x00, 0x00, 0x00, 0x00, 0x00, 0x00, 0x00, 0x00, 0x00, 0x00, 0x00, 0x00, 0x00, 0x00, 0x00, 0x00, 0x00, 0x00, 0x00, 0x00, 0x00, 0x00, 0x00, 0x00, 0x00, 0x00, 0x00, 0x00, 0x00, 0x00, 0x00, 0x00, 0x00, 0x00, 0x00, 0x00, 0x00, 0x00, 0x00, 0x00, 0x00, 0x00, 0x00, 0x00, 0x00, 0x00, 0x00, 0x00, 0x00, 0x00, 0x00, 0x00, 0x00, 0x00, 0x00, 0x00, 0x00, 0x00, 0x00, 0x00, 0x00, 0x00, 0x00, 0x00, 0x00, 0x00, 0x00, 0x00, 0x00, 0x00, 0x00, 0x00, 0x00, 0x00, 0x00, 0x00, 0x00, 0x00, 0x00, 0x00, 0x00, 0x00, 0x00, 0x00, 0x00, 0x00, 0x00, 0x00, 0x00, 0x00, 0x00, 0x00, 0x00, 0x00, 0x00, 0x00, 0x00, 0x00, 0x00, 0x00, 0x00, 0x00, 0x00, 0x00, 0x00, 0x00, 0x00, 0x00, 0x00, 0x00, 0x00, 0x00, 0x00, 0x00, 0x00, 0x00, 0x00, 0x00, 0x00, 0x00, 0x00, 0x00, 0x00, 0x00, 0x00, 0x00, 0x00, 0x00, 0x00, 0x00, 0x00, 0x00, 0x00, 0x00, 0x00, 0x00, 0x00, 0x00, 0x00, 0x00, 0x00, 0x00, 0x00, 0x00, 0x00, 0x00, 0x00, 0x00, 0x00, 0x00, 0x00, 0x00, 0x00, 0x00, 0x00, 0x00, 0x00, 0x00, 0x00, 0x00, 0x00, 0x00, 0x00, 0x00, 0x00, 0x00, 0x00, 0x00, 0x00, 0x00, 0x00, 0x00, 0x00, 0x00, 0x00, 0x00, 0x00, 0x00, 0x00, 0x00, 0x00, 0x00, 0x00, 0x00, 0x00, 0x00, 0x00, 0x00, 0x00, 0x00, 0x00, 0x00, 0x00, 0x00, 0x00, 0x00, 0x00, 0x00, 0x00, 0x40, 0x00, 0x00, 0x00, 0x35, 0xfb, 0xab, 0x36, 0xe1, 0xa6, 0xab, 0x36, 0xf8, 0x6b, 0xd5, 0x36, 0x1c, 0x37, 0xb6, 0x36, 0x31, 0xb8, 0xac, 0x36, 0x00, 0x16, 0xc2, 0x36, 0x67, 0xf3, 0xbf, 0x36, 0x1b, 0x15, 0xc8, 0x36, 0x3c, 0x38, 0xad, 0x36, 0x86, 0x06, 0xad, 0x36, 0x3a, 0xbf, 0xb2, 0x36, 0xda, 0x73, 0xb4, 0x36, 0xa6, 0x1f, 0xab, 0x36, 0xc6, 0x47, 0xad, 0x36, 0xb4, 0xf4, 0xd4, 0x36, 0x0b, 0xda, 0xac, 0x36, 0x37, 0xf9, 0xb1, 0x36, 0x37, 0x3b, 0xb2, 0x36, 0x33, 0x7a, 0xb3, 0x36, 0x90, 0x2d, 0xaf, 0x36, 0x9f, 0xe6, 0xaa, 0x36, 0xf8, 0xbc, 0xb1, 0x36, 0xf9, 0xe9, 0xb2, 0x36, 0x5e, 0x0d, 0xab, 0x36, 0x7b, 0xb4, 0xb1, 0x36, 0x87, 0x20, 0xb8, 0x36, 0x01, 0xba, 0xac, 0x36, 0x4c, 0x99, 0xac, 0x36, 0x5d, 0x77, 0xb8, 0x36, 0x64, 0x3c, 0xe8, 0x36, 0x9a, 0x21, 0xb2, 0x36, 0xb3, 0xcc, 0xb8, 0x36, 0x19, 0x3d, 0xa9, 0x36, 0xa6, 0x27, 0xad, 0x36, 0x0a, 0x0f, 0xb5, 0x36, 0x83, 0xba, 0xbe, 0x36, 0x3c, 0x0f, 0xb2, 0x36, 0x1c, 0x20, 0xad, 0x36, 0x4c, 0x8c, 0xb5, 0x36, 0x69, 0x3d, 0xe3, 0x36, 0x13, 0xa8, 0xcc, 0x36, 0xe8, 0x62, 0xab, 0x36, 0x3b, 0x12, 0xb5, 0x36, 0x42, 0xad, 0xb8, 0x36, 0x6d, 0x99, 0xac, 0x36, 0xce, 0x29, 0xad, 0x36, 0x01, 0x69, 0xac, 0x36, 0x7d, 0xa2, 0xab, 0x36, 0x2d, 0x04, 0xc6, 0x36, 0x0f, 0x36, 0xb0, 0x36, 0xe5, 0xe8, 0xc3, 0x36, 0xc5, 0x29, 0xdf, 0x36, 0x65, 0xc5, 0xb3, 0x36, 0x90, 0xe0, 0xaf, 0x36, 0x5d, 0x52, 0xda, 0x36, 0x53, 0x4f, 0xc3, 0x36, 0x98, 0xfe, 0xb4, 0x36, 0x33, 0x25, 0xda, 0x36, 0x02, 0xd2, 0xbd, 0x36, 0x97, 0x9d, 0xa9, 0x36, 0x98, 0x69, 0xad, 0x36, 0x8d, 0xa3, 0xec, 0x36, 0x6b, 0x4b, 0xab, 0x36, 0xff, 0x9c, 0xb2, 0x36, 0x12, 0x00, 0x00, 0x00, 0x74, 0x66, 0x6c, 0x2e, 0x70, 0x73, 0x65, 0x75, 0x64, 0x6f, 0x5f, 0x71, 0x63, 0x6f, 0x6e, 0x73, 0x74, 0x34, 0x00, 0x00, 0x01, 0x00, 0x00, 0x00, 0x40, 0x00, 0x00, 0x00, 0xe6, 0xfb, 0xff, 0xff, 0x00, 0x00, 0x00, 0x01, 0x14, 0x00, 0x00, 0x00, 0xa8, 0x01, 0x00, 0x00, 0x05, 0x00, 0x00, 0x00, 0x00, 0x00, 0x00, 0x09, 0xb4, 0x01, 0x00, 0x00, 0x3c, 0xfb, 0xff, 0xff, 0x08, 0x00, 0x00, 0x00, 0x0c, 0x01, 0x00, 0x00, 0x20, 0x00, 0x00, 0x00, 0x00, 0x00, 0x00, 0x00, 0x00, 0x00, 0x00, 0x00, 0x00, 0x00, 0x00, 0x00, 0x00, 0x00, 0x00, 0x00, 0x00, 0x00, 0x00, 0x00, 0x00, 0x00, 0x00, 0x00, 0x00, 0x00, 0x00, 0x00, 0x00, 0x00, 0x00, 0x00, 0x00, 0x00, 0x00, 0x00, 0x00, 0x00, 0x00, 0x00, 0x00, 0x00, 0x00, 0x00, 0x00, 0x00, 0x00, 0x00, 0x00, 0x00, 0x00, 0x00, 0x00, 0x00, 0x00, 0x00, 0x00, 0x00, 0x00, 0x00, 0x00, 0x00, 0x00, 0x00, 0x00, 0x00, 0x00, 0x00, 0x00, 0x00, 0x00, 0x00, 0x00, 0x00, 0x00, 0x00, 0x00, 0x00, 0x00, 0x00, 0x00, 0x00, 0x00, 0x00, 0x00, 0x00, 0x00, 0x00, 0x00, 0x00, 0x00, 0x00, 0x00, 0x00, 0x00, 0x00, 0x00, 0x00, 0x00, 0x00, 0x00, 0x00, 0x00, 0x00, 0x00, 0x00, 0x00, 0x00, 0x00, 0x00, 0x00, 0x00, 0x00, 0x00, 0x00, 0x00, 0x00, 0x00, 0x00, 0x00, 0x00, 0x00, 0x00, 0x00, 0x00, 0x00, 0x00, 0x00, 0x00, 0x00, 0x00, 0x00, 0x00, 0x00, 0x00, 0x00, 0x00, 0x00, 0x00, 0x00, 0x00, 0x00, 0x00, 0x00, 0x00, 0x00, 0x00, 0x00, 0x00, 0x00, 0x00, 0x00, 0x00, 0x00, 0x00, 0x00, 0x00, 0x00, 0x00, 0x00, 0x00, 0x00, 0x00, 0x00, 0x00, 0x00, 0x00, 0x00, 0x00, 0x00, 0x00, 0x00, 0x00, 0x00, 0x00, 0x00, 0x00, 0x00, 0x00, 0x00, 0x00, 0x00, 0x00, 0x00, 0x00, 0x00, 0x00, 0x00, 0x00, 0x00, 0x00, 0x00, 0x00, 0x00, 0x00, 0x00, 0x00, 0x00, 0x00, 0x00, 0x00, 0x00, 0x00, 0x00, 0x00, 0x00, 0x00, 0x00, 0x00, 0x00, 0x00, 0x00, 0x00, 0x00, 0x00, 0x00, 0x00, 0x00, 0x00, 0x00, 0x00, 0x00, 0x00, 0x00, 0x00, 0x00, 0x00, 0x00, 0x00, 0x00, 0x00, 0x00, 0x00, 0x00, 0x00, 0x00, 0x00, 0x00, 0x00, 0x00, 0x00, 0x00, 0x00, 0x00, 0x00, 0x00, 0x00, 0x00, 0x00, 0x00, 0x00, 0x00, 0x00, 0x00, 0x00, 0x00, 0x00, 0x00, 0x00, 0x00, 0x20, 0x00, 0x00, 0x00, 0xec, 0x8c, 0xfd, 0x3a, 0xbe, 0x70, 0x11, 0x3b, 0xc3, 0x40, 0x20, 0x3b, 0x4b, 0xa6, 0x04, 0x3b, 0x14, 0xf6, 0x04, 0x3b, 0x37, 0xa2, 0x2e, 0x3b, 0x20, 0x71, 0x01, 0x3b, 0x37, 0x8d, 0x0a, 0x3b, 0x7c, 0xa0, 0x34, 0x3b, 0xb2, 0xc7, 0x08, 0x3b, 0x38, 0x17, 0x00, 0x3b, 0x67, 0xf0, 0x2d, 0x3b, 0x7a, 0x65, 0x1c, 0x3b, 0xb7, 0xec, 0x07, 0x3b, 0x19, 0x5e, 0x3a, 0x3b, 0xb9, 0x50, 0x06, 0x3b, 0x4e, 0x9a, 0x06, 0x3b, 0xf2, 0x04, 0x07, 0x3b, 0x11, 0x7b, 0x23, 0x3b, 0x7b, 0x02, 0x4d, 0x3b, 0x32, 0xcd, 0x1d, 0x3b, 0x35, 0x63, 0x08, 0x3b, 0x5c, 0x87, 0x34, 0x3b, 0x71, 0xa6, 0x15, 0x3b, 0xd0, 0x85, 0x3c, 0x3b, 0xc2, 0x9a, 0x1f, 0x3b, 0x14, 0x8e, 0x02, 0x3b, 0x9f, 0x4c, 0x2d, 0x3b, 0x21, 0x92, 0xff, 0x3a, 0xe7, 0x92, 0x0f, 0x3b, 0x46, 0xa7, 0x0c, 0x3b, 0xef, 0x41, 0x36, 0x3b, 0x12, 0x00, 0x00, 0x00, 0x74, 0x66, 0x6c, 0x2e, 0x70, 0x73, 0x65, 0x75, 0x64, 0x6f, 0x5f, 0x71, 0x63, 0x6f, 0x6e, 0x73, 0x74, 0x33, 0x00, 0x00, 0x02, 0x00, 0x00, 0x00, 0x20, 0x00, 0x00, 0x00, 0x40, 0x00, 0x00, 0x00, 0xbe, 0xfd, 0xff, 0xff, 0x00, 0x00, 0x00, 0x01, 0x14, 0x00, 0x00, 0x00, 0xa4, 0x01, 0x00, 0x00, 0x04, 0x00, 0x00, 0x00, 0x00, 0x00, 0x00, 0x02, 0xb0, 0x01, 0x00, 0x00, 0x14, 0xfd, 0xff, 0xff, 0x08, 0x00, 0x00, 0x00, 0x08, 0x01, 0x00, 0x00, 0x20, 0x00, 0x00, 0x00, 0x00, 0x00, 0x00, 0x00, 0x00, 0x00, 0x00, 0x00, 0x00, 0x00, 0x00, 0x00, 0x00, 0x00, 0x00, 0x00, 0x00, 0x00, 0x00, 0x00, 0x00, 0x00, 0x00, 0x00, 0x00, 0x00, 0x00, 0x00, 0x00, 0x00, 0x00, 0x00, 0x00, 0x00, 0x00, 0x00, 0x00, 0x00, 0x00, 0x00, 0x00, 0x00, 0x00, 0x00, 0x00, 0x00, 0x00, 0x00, 0x00, 0x00, 0x00, 0x00, 0x00, 0x00, 0x00, 0x00, 0x00, 0x00, 0x00, 0x00, 0x00, 0x00, 0x00, 0x00, 0x00, 0x00, 0x00, 0x00, 0x00, 0x00, 0x00, 0x00, 0x00, 0x00, 0x00, 0x00, 0x00, 0x00, 0x00, 0x00, 0x00, 0x00, 0x00, 0x00, 0x00, 0x00, 0x00, 0x00, 0x00, 0x00, 0x00, 0x00, 0x00, 0x00, 0x00, 0x00, 0x00, 0x00, 0x00, 0x00, 0x00, 0x00, 0x00, 0x00, 0x00, 0x00, 0x00, 0x00, 0x00, 0x00, 0x00, 0x00, 0x00, 0x00, 0x00, 0x00, 0x00, 0x00, 0x00, 0x00, 0x00, 0x00, 0x00, 0x00, 0x00, 0x00, 0x00, 0x00, 0x00, 0x00, 0x00, 0x00, 0x00, 0x00, 0x00, 0x00, 0x00, 0x00, 0x00, 0x00, 0x00, 0x00, 0x00, 0x00, 0x00, 0x00, 0x00, 0x00, 0x00, 0x00, 0x00, 0x00, 0x00, 0x00, 0x00, 0x00, 0x00, 0x00, 0x00, 0x00, 0x00, 0x00, 0x00, 0x00, 0x00, 0x00, 0x00, 0x00, 0x00, 0x00, 0x00, 0x00, 0x00, 0x00, 0x00, 0x00, 0x00, 0x00, 0x00, 0x00, 0x00, 0x00, 0x00, 0x00, 0x00, 0x00, 0x00, 0x00, 0x00, 0x00, 0x00, 0x00, 0x00, 0x00, 0x00, 0x00, 0x00, 0x00, 0x00, 0x00, 0x00, 0x00, 0x00, 0x00, 0x00, 0x00, 0x00, 0x00, 0x00, 0x00, 0x00, 0x00, 0x00, 0x00, 0x00, 0x00, 0x00, 0x00, 0x00, 0x00, 0x00, 0x00, 0x00, 0x00, 0x00, 0x00, 0x00, 0x00, 0x00, 0x00, 0x00, 0x00, 0x00, 0x00, 0x00, 0x00, 0x00, 0x00, 0x00, 0x00, 0x00, 0x00, 0x00, 0x00, 0x00, 0x00, 0x00, 0x00, 0x00, 0x00, 0x00, 0x00, 0x00, 0x00, 0x00, 0x00, 0x20, 0x00, 0x00, 0x00, 0x85, 0xd4, 0x07, 0x37, 0x17, 0xd4, 0x1b, 0x37, 0xf4, 0xb2, 0x2b, 0x37, 0xc3, 0x1f, 0x0e, 0x37, 0x3f, 0x75, 0x0e, 0x37, 0x5b, 0x1b, 0x3b, 0x37, 0xf1, 0xaf, 0x0a, 0x37, 0x9a, 0x72, 0x14, 0x37, 0x36, 0x87, 0x41, 0x37, 0xb1, 0x8c, 0x12, 0x37, 0x55, 0x3d, 0x09, 0x37, 0xd7, 0x5c, 0x3a, 0x37, 0x27, 0x91, 0x27, 0x37, 0x12, 0xa2, 0x11, 0x37, 0xca, 0xad, 0x47, 0x37, 0xa6, 0xe8, 0x0f, 0x37, 0x7d, 0x37, 0x10, 0x37, 0xbf, 0xa9, 0x10, 0x37, 0x47, 0x28, 0x2f, 0x37, 0x0a, 0xa7, 0x5b, 0x37, 0x90, 0x12, 0x29, 0x37, 0x06, 0x21, 0x12, 0x37, 0x4a, 0x6c, 0x41, 0x37, 0xc3, 0x56, 0x20, 0x37, 0xe9, 0xfc, 0x49, 0x37, 0x18, 0x01, 0x2b, 0x37, 0x40, 0xe1, 0x0b, 0x37, 0x5d, 0xad, 0x39, 0x37, 0x98, 0xe9, 0x08, 0x37, 0x1f, 0xd4, 0x19, 0x37, 0x17, 0xb3, 0x16, 0x37, 0x7a, 0x46, 0x43, 0x37, 0x12, 0x00, 0x00, 0x00, 0x74, 0x66, 0x6c, 0x2e, 0x70, 0x73, 0x65, 0x75, 0x64, 0x6f, 0x5f, 0x71, 0x63, 0x6f, 0x6e, 0x73, 0x74, 0x32, 0x00, 0x00, 0x01, 0x00, 0x00, 0x00, 0x20, 0x00, 0x00, 0x00, 0x8e, 0xff, 0xff, 0xff, 0x00, 0x00, 0x00, 0x01, 0x14, 0x00, 0x00, 0x00, 0x40, 0x00, 0x00, 0x00, 0x03, 0x00, 0x00, 0x00, 0x00, 0x00, 0x00, 0x09, 0x4c, 0x00, 0x00, 0x00, 0xe4, 0xfe, 0xff, 0xff, 0x08, 0x00, 0x00, 0x00, 0x1c, 0x00, 0x00, 0x00, 0x02, 0x00, 0x00, 0x00, 0x00, 0x00, 0x00, 0x00, 0x00, 0x00, 0x00, 0x00, 0x00, 0x00, 0x00, 0x00, 0x00, 0x00, 0x00, 0x00, 0x00, 0x00, 0x00, 0x00, 0x02, 0x00, 0x00, 0x00, 0xe6, 0xcf, 0x6b, 0x3b, 0x28, 0x27, 0x50, 0x3b, 0x12, 0x00, 0x00, 0x00, 0x74, 0x66, 0x6c, 0x2e, 0x70, 0x73, 0x65, 0x75, 0x64, 0x6f, 0x5f, 0x71, 0x63, 0x6f, 0x6e, 0x73, 0x74, 0x31, 0x00, 0x00, 0x02, 0x00, 0x00, 0x00, 0x02, 0x00, 0x00, 0x00, 0x20, 0x00, 0x00, 0x00, 0x00, 0x00, 0x16, 0x00, 0x1c, 0x00, 0x18, 0x00, 0x17, 0x00, 0x10, 0x00, 0x0c, 0x00, 0x08, 0x00, 0x00, 0x00, 0x00, 0x00, 0x00, 0x00, 0x07, 0x00, 0x16, 0x00, 0x00, 0x00, 0x00, 0x00, 0x00, 0x01, 0x14, 0x00, 0x00, 0x00, 